Ġ t
Ġ a
h e
i n
r e
o n
Ġt he
e r
Ġ s
a t
Ġ o
e n
Ġ w
Ġ c
o r
i t
n d
e s
i s
e d
Ġ p
Ġ f
Ġ b
in g
a l
a n
Ġ in
a r
Ġo f
Ġt o
o u
i on
Ġa nd
Ġ m
i c
Ġ d
a s
l e
r o
en t
Ġ h
Ġt h
i l
Ġ re
Ġ T
c t
s t
o m
v e
Ġ e
Ġ n
Ġ S
Ġb e
Ġ l
Ġ A
Ġ C
i d
l y
at ion
Ġf or
Ġ g
Ġ I
e t
o t
u t
Ġ on
c e
Ġ is
o l
a m
a y
u r
i m
c h
o w
i g
a d
s e
Ġ u
Ġs t
v er
Ġth at
Ġ M
ĠT he
Ġ P
it h
i r
Ġ y
Ġw ith
Ġa s
Ġp ro
m ent
Ġ B
e l
er s
r a
Ġa n
' s
Ġc on
il l
he r
u l
Ġ 1
Ġ it
t er
Ġ "
Ġ D
Ġw h
Ġa l
at e
p p
Ġ (
Ġo r
Ġ R
i f
Ġ H
Ġ W
Ġ F
Ġ 2
g e
Ġc om
Ġw as
Ġa t
Ġy ou
Ġa re
Ġd e
Ġ he
or t
r i
it y
es s
Ġ E
Ġs u
es t
Ġw e
a c
l d
a b
q u
Ġ N
e ct
Ġ L
is t
Ġb y
Ġe x
Ġh a
o d
o re
n t
e m
k e
Ġ G
o p
ar t
ro m
u s
a in
u d
re s
i ve
i es
o s
o c
Ġn e
an t
a nd
Ġs e
Ġs h
Ġ v
u n
ig h
Ġ r
Ġf rom
t h
Ġ O
u m
Ġn ot
re d
al l
u st
ar d
Ġw ill
en d
i v
Ġc h
Ġ2 0
Ġha ve
Ġp l
Ġ le
Ġth is
i al
ou ld
ou r
ĠI n
e ar
Ġ J
u re
p t
ion s
p l
igh t
r ou
Ġ U
f f
Ġh as
or k
Ġs p
t her
a g
o st
as t
ic h
p er
at ed
ic e
i e
Ġa b
id e
i p
g h
Ġcom p
Ġa d
Ġa pp
a ge
c c
ou t
Ġal l
om e
Ġs a
a k
Ġc an
or m
Ġcon t
ĠS t
b er
Ġin c
Ġw he
in e
â Ģ
0 0
am e
Ġre s
Ġin t
e c
an s
Ġg o
Ġh is
Ġthe ir
an ce
el l
a re
ab le
Ġwh ich
Ġ en
Ġc l
ation s
Ġu s
ac k
ic al
o g
i re
ĠT h
ar y
or d
Ġ j
u e
a ct
Ġ im
ig n
Ġp er
Ġo ut
on g
Ġb ut
Ġt e
Ġm e
i a
Ġthe y
o k
Ġ20 1
Ġ K
d u
ve l
u b
im e
s o
a p
f orm
a ch
r y
Ġd o
p ort
i z
Ġu p
Ġp art
i b
ul t
ou s
Ġ k
Ġ1 9
Ġwh o
Ġsa id
er v
a il
r u
Ġw ork
Ġy ear
e re
as e
Ġm ore
Ġo ther
on e
Ġyou r
Ġwe re
a ke
Ġof f
Ġ V
Ġd is
Ġon e
Ġa g
re e
ct ion
it ion
Ġm an
Ġu n
Ġ 3
ou nt
Ġal so
al ly
l ic
as s
Ġbe en
ĠC h
Ġan y
Ġ âĢ
e p
a ce
ent s
en ce
on d
in d
Ġre c
l ow
l ud
Ġe v
l l
Ġh ad
o se
nd er
Ġs o
Ġt r
Ġit s
Ġs c
Ġcom m
or s
ĠI t
' t
Ġne w
Ġa cc
Ġ qu
en s
ment s
ver y
il d
it e
o in
ar k
. "
at er
f ter
Ġab out
Ġw ould
i le
Ġt ime
Ġpro v
Ġ Y
ay s
Ġo ver
i ke
ow n
ir st
a u
it t
res s
ĠH e
on s
o ok
Ġinc lud
j ect
r ic
e w
Ġa r
w o
ing s
or y
a v
ver s
Ġp re
is h
Ġth an
Ġthe re
ad e
o y
an g
Ġ ro
Ġwhe n
Ġu nder
it ies
c es
o ol
, "
ou nd
c k
Ġf irst
Ġst ud
n ing
ra ct
Ġm ay
o ve
at es
Ġe m
he d
Ġre qu
i an
ĠR e
Ġ if
ol d
Ġbe c
Ġcon s
ĠTh is
Ġint o
w n
is s
Ġpl ay
if ic
g r
le ct
Ġs ome
Ġas s
Ġ 4
Ġp e
u al
Ġd es
ĠC om
Ġin d
o b
pp ort
am p
c ed
Ġt wo
Ġthe m
Ġad d
rou gh
Ġa ct
Ġsu b
ou gh
Ġre g
Ġa fter
er m
Ġl ike
ation al
Ġk n
t s
ic k
) .
Ġs erv
e e
Ġo ur
Ġt ra
ter n
il ity
f ere
ĠP ro
o v
Ġ 5
i ed
op le
Ġ -
Ġne ed
Ġim p
Ġfor m
ĠA s
at ing
on t
w e
ĠU n
Ġ her
vel op
y st
n e
f t
id ent
Ġex p
ĠâĢ ĵ
ur ing
Ġbe t
le t
as ed
ch ool
Ġn o
Ġh ow
Ġat t
Ġin v
p h
Ġon ly
Ġwh at
Ġa m
Ġc o
Ġde c
at ive
Ġpe ople
n g
c ess
Ġb u
r it
in k
ri b
Ġf e
ic es
ie w
a w
i ous
Ġu se
ĠW h
rou nd
ol low
Ġth rough
oc k
is e
h ip
yst em
form ation
Ġsh ould
Ġse c
Ġg et
ers on
Ġre l
Ġs he
o od
u nd
f ore
Ġf in
ur n
Ġc ol
an ge
Ġp os
al s
w ard
au se
Ġsu ch
Ġwhe re
x t
ib le
Ġa c
re at
Ġj ust
as on
Ġres p
l es
c y
Ġc ould
Ġte am
Ġde velop
ĠW e
g an
Ġyear s
) ,
Ġsp ec
Ġ20 0
l and
Ġp ol
it ed
ou n
u res
Ġf ollow
Ġre m
an y
ot h
Ġ ra
gr am
Ġm em
Ġpro du
p e
Ġthe se
en er
Ġ '
Ġd if
Ġm ost
e k
ol og
Ġ ent
m er
Ġre port
Ġapp ro
re n
Ġ 6
er t
Ġb ack
Ġ $
ver n
ĠI f
d ay
Ġp ub
ĠD e
an k
at a
Ġl oc
Ġs et
Ġin st
Ġtr ans
Ġsu pport
Ġm ake
Ġin formation
Ġm on
Ġp r
oin t
Ġn um
Ġw ell
ect ion
Ġe ff
it s
is ion
u p
Ġp h
Ġs ystem
ul ar
Ġm ade
f ul
or ld
Ġus ed
ar ch
Ġm y
Ġdis c
ire ct
ar g
Ġb l
Ġde f
Ġm in
ĠA l
Ġo b
Ġag ain
res ent
ro w
Ġd et
ĠA n
Ġbe ing
u es
Ġprov id
Ġthe n
Ġh im
i red
y s
Ġe ach
rou p
a ir
u ch
i ent
ak ing
l ed
we en
al th
Ġre t
Ġs ign
Ġhe l
at h
i vers
Ġm ust
i x
Ġs chool
v ed
t y
ic s
Ġ end
se l
Ġin ter
Ġo wn
he n
Ġp erson
il y
Ġbe fore
Ġc ar
an c
Ġc ur
Ġbet ween
b ers
Ġ ke
ĠL e
ce pt
Ġhel p
Ġn ow
pl oy
Ġst ate
Ġc re
a x
ut ion
i o
v en
ow er
Ġst art
Ġm od
Ġf l
ĠN ew
p os
n er
Ġ 7
Ġkn ow
ĠF or
he s
ĠCom m
et h
Ġh igh
Ġpro gram
Ġd uring
Ġs ur
i el
v iew
ic t
in ess
e ver
Ġsh ow
e red
Ġth ree
Ġman y
Ġcomm un
ĠA r
Ġr ight
ant s
Ġpro ject
Ġe very
Ġl ast
Ġsh all
Ġ1 0
ro s
re nt
ot her
T he
ch n
Ġc our
Ġc all
in ce
t ing
Ġl ook
if e
Ġpl an
r al
Ġd id
Ġs m
c om
Ġpart ic
i er
Ġinclud ing
m an
00 0
d er
Ġa ut
Ġl ong
Ġ1 8
Ġex per
Ġdif fere
Ġth ose
Ġd ata
Ġe ar
s p
in es
Ġg r
w ay
Ġa v
b le
Ġc ount
Ġbec ause
Ġb us
Ġwe ek
et s
Ġ 8
Ġch ild
Ġpro cess
Ġc ent
iss ion
Ġle ad
ĠA d
i ence
Ġm ark
p en
vern ment
ĠY ou
ĠO n
Ġg u
Ġw ay
ul l
Ġg ame
Ġse e
Ġre ce
v ing
ru ct
Ġapp lic
iv es
Ġdo es
as h
Ġex t
Ġd own
Ġre le
ĠE x
t e
Ġcomp let
Ġev en
ĠS p
ĠH ow
ĠS h
ill ion
Ġnum ber
2 0
Ġt ake
ĠS e
ĠB ut
en e
Ġ very
Ġpub lic
Ġre p
iel d
en cy
Ġp ri
Ġc are
ĠS c
Ġwh ile
ĠT e
Ġo per
o ard
Ġgo od
Ġw ant
Ġp ur
Ġg roup
oc i
Ġres ult
Ġis s
ĠA nd
Ġre f
Ġdes ign
_ _
Ġs im
ion al
Ġg ener
Ġ ed
Ġs er
Ġf am
Ġd ist
Ġm ed
Ġs ame
Ġb oth
u c
at t
Ġm ain
Ġf ound
u g
Ġ 9
Ġme et
Ġcont in
in s
ĠC l
ect ed
Ġcon c
ivers ity
u ally
Ġsec ond
al e
Ġbu ild
ort h
us s
w ork
is hed
Ġ Q
ĠI nd
ĠP l
it al
Ġcon f
Ġfollow ing
if ied
a ve
Ġor gan
Ġm uch
Ġr un
Ġd ay
ĠThe re
Ġad v
ĠA t
ros s
at ch
er n
Ġmon th
r ing
ut e
Ġper form
Ġall ow
ical ly
Ġd irect
Ġp ay
g et
Ġstud ents
Ġv al
Ġc or
ar s
at her
Ġem ploy
' re
c on
ou se
h or
o ot
et y
am es
in ed
a red
er g
a j
Ġwith in
Ġagain st
Ġoff ic
Ġle vel
Ġc ost
ĠâĢ Ķ
ar ge
Ġrec ord
ag es
Ġdiffere nt
Ġan n
Ġde p
Ġte chn
im es
Ġa round
Ġinc re
iz ed
re ad
Ġbus iness
ar m
ist s
Ġcomp any
Ġth ink
Ġw orld
Ġcur rent
al k
Ġst r
Ġ [
olog y
Ġst ill
Ġ est
ĠC on
is ed
Ġd on
Ġst and
in ing
l ine
Ġinv est
Ġo pen
Ġpl ace
a ff
Ġre se
p r
pt ion
if y
Ġt erm
Ġse ason
Ġprov ide
ere st
Ġav ail
Ġf our
at ure
ĠG o
Ġpos s
Ġe qu
Ġf ind
le ment
Ġh ome
Ġha nd
Ġcl ass
Ġeff ect
Ġp ass
Ġf il
Ġus ing
id er
ab ility
Ġf und
Ġf ac
or n
Ġserv ice
Ġc he
Ġin f
n ce
iv id
al ity
Ġim port
ĠThe y
ial ly
at or
Ġre ad
Ġe lect
v ent
t on
Ġact iv
Ġpro f
Ġserv ices
in al
a z
ĠR es
mer ic
cc ess
Ġt est
Ġd el
Ġpro t
n ess
ĠA ll
ĠF r
Ġc le
Ġne xt
Ġmem bers
Ġex pl
ou th
i ver
ro l
r on
Ġgo vernment
" .
Ġl ist
Ġc ap
m e
" ,
ĠC ol
Ġt y
ard s
ra ph
Ġqu est
Ġc a
Ġle g
ain ed
c ent
l ing
ĠA pp
Ġl aw
m in
Ġavail able
s ide
ate ly
a h
iz e
Ġcon st
Ġv ar
m s
ĠC ont
Ġgo ing
ur al
o x
Ġrequ ire
g g
re t
Ġf act
Ġs ince
Ġhe alth
Ġb est
Ġint erest
age ment
Ġ19 9
v es
ord ing
en g
ĠS he
en se
Ġle ar
ot e
Ġs ol
Ġar t
Ġg iv
ak es
Ġf r
Ġadd ition
Ġp ost
. .
ĠA meric
Ġs k
Ġare a
Ġto p
Ġacc ess
el s
it ions
Ġrequ ired
ĠP h
Ġw ater
t en
Ġinclud e
oc u
Ġs ay
sel f
Ġv is
Ġhe re
Ġ &
m ed
Ġbe l
o h
Ġch ang
end ed
Ġan other
ir d
ĠM an
Ġl ife
ĠUn iversity
in c
st and
Ġor der
Ġth ough
i od
O N
iv ed
Ġ Z
Ġde m
m ber
Ġ1 2
Ġhe ad
Ġu nt
ĠWh at
ĠT o
os s
Ġloc al
ir on
Ġre st
Ġ ident
l ess
amp le
as es
o ad
w are
Ġp at
Ġp ract
aj or
ĠB e
le y
Ġcont ract
ate g
Ġen g
Ġw in
Ġprodu ct
ur y
Ġm illion
ĠE ng
Ġsm all
Ġwith out
od e
re en
Ġa ff
ĠT r
le ase
i or
Ġas k
Ġp resent
Ġdevelop ment
Ġb ro
ĠSt ate
Ġmark et
are nt
Ġ1 5
b s
r ation
c l
Ġa ir
Ġch ange
art ment
Ġc ase
Ġw r
Ġd ri
c rib
Ġbe h
ric t
er ing
t he
ĠB l
ĠAs s
em ber
Ġp ower
Ġunt il
is ter
oc ial
oun c
ivid ual
od y
in a
Ġs om
E R
i k
Ġl ess
Ġf un
v ious
Ġf ew
Ġp op
Ġab le
Ġl and
Ġp oint
iz ation
Ġm ov
ust om
Ġimp ro
ĠO r
ff ic
Ġs ays
Ġl ater
Ġp res
ain s
Ġd ays
' ve
le ction
du ct
a im
Ġpro per
u red
an n
Ġresp ons
Ġ ve
ĠW hen
T I
con om
Ġc ert
il ities
is k
1 9
ĠN o
p or
Ġg l
Ġl im
Ġn ame
Ġb ased
ul ation
Ġd ocu
Ġe l
Ġev ent
ĠS u
our s
Ġper iod
v iron
Ġcommun ity
ur ther
Ġb as
ic y
Ġsu ccess
ĠI s
in ation
Ġha pp
Ġchild ren
Ġre view
ent ial
1 0
Ġpro ble
Ġwork ing
ĠC o
ĠA ct
Ġg reat
Ġpro m
Ġimport ant
Ġaut hor
Ġb ig
Ġp ut
ĠA ust
l ish
Ġl ine
Ġst aff
Ġt ri
om m
Ġin tern
Ġne ar
ĠCom p
in t
i um
Ġm et
Ġd ra
Ġret urn
Ġm ajor
ĠC an
Ġrese arch
Ġo cc
Ġsa f
ent ly
u ro
Ġpartic ip
Ġind ividual
ĠU S
Ġcomp et
ĠC ent
Ġre al
l ished
u ed
ra nd
Ġfam ily
Ġpro pos
Ġ .
ific ation
Ġf ull
i qu
w ays
Ġl ot
Ġch ar
Ġcon d
Ġc r
Ġcall ed
Ġg row
an e
s h
is ing
ĠHow ever
an ces
âĢ ĵ
is m
Ġed uc
Ġinv ol
ur s
ot t
ĠM ay
ĠA fter
Ġprovid ed
ĠS o
Ġcom e
id ence
ĠM in
ounc il
Ġacc ount
Ġle t
end ing
Ġen s
ĠM e
Ġp a
ial s
viron ment
Ġst re
p le
Ġp ar
our ces
ill s
ĠUn ited
Ġsu pp
Ġs it
ĠTh at
Ġ1 1
Ġ Â
Ġre ally
v al
un e
ene f
E S
ut ure
Ġper cent
b y
Ġl arge
Ġgiv en
Ġke ep
et work
ag ue
Ġor ig
f er
Ġs l
he re
fere nce
Ġn on
itt ed
Ġm ight
ĠP art
p ar
ĠAust ral
p ri
Ġbel ie
Ġbet ter
ĠA g
itt ee
Ġcour se
Ġd ue
one y
Ġin s
b all
t o
al f
Ġle ft
os ed
it ive
Ġm ove
ĠS erv
Ġb re
ak en
Ġde v
at ter
ic le
Ġstud ent
p s
Ġs ing
Ġc ity
op e
Ġf ree
ri es
Ġkn own
Ġrequ est
en n
is c
W e
Ġsub m
u ation
Ġstud y
us ed
Ġf ive
Ġse ver
Ġear ly
Ġal ong
Ġe as
Ġdet ail
Ġcont rol
le g
Ġm ater
pp ed
Ġposs ible
Ġp ot
er y
Ġh ist
ent ion
end s
Ġc ustom
Ġto o
Ġcomplet e
ĠP r
5 0
Ġle ast
Ġt urn
g in
Ġl a
Ġh ard
ĠM ar
Ġm aking
Ġto ld
her s
itt le
Ġsp e
âĢ Ķ
ĠN ational
Ġc amp
it or
anc ial
ĠD ep
read y
ĠE n
Ġe conom
ib ility
Ġ3 0
ĠS chool
Ġdet erm
Ġcl aim
Ġan al
Ġme as
ut es
er al
pport un
ĠSt ud
Ġh um
at s
ĠC ar
ĠO ne
Ġprof ess
Ġex ample
Ġ1 6
Ġsever al
ĠA m
Ġf uture
e es
Ġb enef
es p
Ġunder stand
Ġb ook
le x
r id
ore d
Ġcle ar
ĠW ith
n ers
ĠE uro
Ġind ust
ĠIn st
os p
ab ly
u nt
iv ing
Ġfin al
Ġr isk
ĠP ol
Ġth ings
Ġ1 7
Ġdisc uss
eth ing
Ġc rit
Ġac ross
Ġsh ort
Ġal ready
Ġcons ider
Ġ ide
Ġ19 8
ir c
Ġ 0
ward s
Ġrep resent
Ġf urther
Ġf ield
ĠM r
al es
Ġt imes
Ġexper ience
Ġj ob
Ġcount ry
Ġmem ber
ĠC ity
Ġbuild ing
ur ity
as k
ne y
ĠRe g
oin ts
Ġt ax
Ġo ld
' ll
Ġg ames
it ing
our ce
Ġh ig
Ġman ag
e b
em s
i en
Ġt ry
ru ction
Ġam ount
Ġspec ial
ver age
it her
Ġcon n
Ġapp ear
ĠThe se
Ġs ocial
Ġh old
as ter
Ġadd ress
Ġneed s
er c
Ġg ive
Ġre du
n ed
f or
t ain
Ġo pportun
o or
Ġwhe ther
Ġv iew
Ġp ast
Ġme ans
Ġcom pl
Ġf oc
Ġass ess
il ar
' m
Ġbe low
Ġsom ething
b e
Ġf ore
Ġtra ining
Ġab ove
th ing
y ear
Ġto t
ĠJ an
Ġin it
i am
Ġ1 3
ĠJ u
Ġapplic ation
at ors
O R
Ġsu m
Ġbec ome
le ge
ĠG u
ĠS ec
Ġ201 7
Ġw ar
Ġre ason
s on
Ġs ide
Ġpartic ular
Ġm ult
o ber
Ġplay ers
Ġag ree
a f
E N
ĠI m
a pp
it c
Ġha ving
Ġpre vious
Ġl ight
Ġest ab
Ġare as
Ġw on
y m
Ġann oun
o f
Ġ1 4
Ġmeet ing
ab or
Ġv ol
Ġ201 6
s c
Ġtr ad
Ġst at
Ġfe el
Ġ vers
Ġpri or
Ġcont act
Ġm us
om en
Ġl ow
il t
Ġto ok
Ġch o
min ist
ĠEuro pe
Ġv ide
A R
. ,
Ġg ot
Ġs ection
ĠS outh
Ġacc ording
Ġmonth s
Ġm oney
Ġt em
Ġde al
ac y
ro du
Ġperform ance
Ġs ite
e ad
o ver
Ġchar act
Ġd ate
3 0
Ġ X
Ġpri v
Ġ201 8
Ġth ird
b ack
e x
Ġne ver
r ist
ul es
Ġsign ific
eth od
Ġser ies
ar ing
ĠW orld
Ġl ittle
Ġen vironment
Ġke y
ĠG r
Ġimp act
Ġdes crib
il it
Ġde b
ĠC al
ro ll
Ġrece ived
im ate
ĠAmeric an
Ġappro pri
Ġman agement
Ġa way
Ġne cess
ir m
ĠJ oh
Ġsp ace
Ġ201 5
Ġh ours
Ġens ure
ĠE m
ch ie
Ġw rit
c ing
__ __
Ġal ways
Ġof ten
Ġo pt
Ġdec ision
Ġp oints
Ġspec ific
Ġex ist
Ġs ix
Ġyou ng
Ġactiv ities
ro p
ĠIn tern
Ġre pl
I t
Ġt aken
ive ly
Ġf ail
u se
Ġdocu ment
el f
ad em
Ġn etwork
Ġf ar
ĠM c
ĠF l
Ġbec ame
Ġchang es
i ents
Ġs w
Ġpos ition
Ġp arent
am ed
Ġfe at
Ġd r
Ġadd ed
ĠM arch
Ġme an
ĠP re
Ġfin ancial
ort s
og n
ie f
ĠM ed
Ġ19 7
Ġa ction
Ġpol icy
Ġimpro ve
ub lic
ĠB y
ec ut
I N
Ġiss ues
Ġh ouse
Ġind ic
Ġform er
A S
ĠA cc
get her
u ary
Ġto gether
ĠC ouncil
Ġval ue
Ġt re
au gh
Ġtot al
ĠN orth
Ġass ist
ĠC ount
h old
Ġen c
ĠO ct
Ġhe ld
Ġc ame
og raph
ĠJ une
Ġcl ose
Ġsing le
at ic
erg y
Ġm id
Ġsub ject
g ress
Ġro le
or ies
ĠJoh n
Ġw ord
rib ut
Ġreport ed
ĠSe pt
Ġgener al
im um
th ough
Ġob ject
a i
t ed
Ġf ri
Ġsignific ant
pr il
Ġp ress
ĠSt ates
Ġche ck
ruct ure
Ġsu per
y n
Ġ201 4
Ġimp lement
Ġc op
Ġlike ly
u ck
Ġf ood
s w
Ġcl ub
Ġsim ilar
f act
1 2
e f
Ġty p
Ġrequire ments
Ġother s
ĠB rit
ĠE d
Ġinclud ed
Ġf oot
Ġconc ern
Ġvar i
ĠY ork
ĠCan ad
gg est
Ġsu ggest
Ġac cept
Ġt alk
i ans
Ġwh y
ang u
ĠN e
itt en
pl es
on es
ĠWh ile
ĠDep artment
Ġn ational
Ġsu re
Ġcour t
ĠA pril
Ġstr ong
ce ed
Ġc irc
Ġen ergy
an ies
Ġd one
Ġam ong
Ġresult s
ĠB r
Ġaddition al
at ory
Ġs ent
ĠA ug
g ed
n ot
Ġa ud
Ġse en
Ġperson al
ĠB ro
A N
Ġtechn ology
re g
Ġm ot
ĠB oard
I S
Ġwe bs
Ġb r
ot s
ar c
Ġquest ion
Ġplay er
Ġcert ain
Ġappropri ate
A T
Ġc red
ĠJu ly
Ġreg ard
Ġcom b
E C
l er
Ġa chie
1 5
p ro
Ġbl ock
ĠP ar
ap s
Ġcon duct
Ġexp ected
ac ed
Ġpol it
Ġm ethod
ach ing
ĠT ra
Ġ i
us h
Ġp ort
Ġex am
ĠR ec
Ġe ither
ĠJan uary
Ġc al
Ġt it
Ġb oard
Ġto day
pl ay
Ġst ep
un ch
Ġph ys
Ġeduc ation
ur ch
em pt
led ge
Ġstart ed
Ġcre ate
is ions
e al
ĠSept ember
st er
Ġon ce
ĠD o
ra ft
l ier
Ġcommun ic
Ġj oin
Ġen ough
Ġquest ions
ĠN ot
Ġmod el
Ġe t
v ant
n ow
Ġpart y
ight s
as ing
Ġoff ice
ar ter
Ġb ank
Ġdif f
ens ive
Ġrem ain
Ġch all
Ġresp ect
Ġpot ential
id ed
Ġterm s
Ġass oci
Ġh alf
Ġvide o
Ġ2 5
ĠW ork
Ġw ent
1 8
Ġsystem s
Ġbe gin
A C
ed eral
ĠQ u
Ġinvest ig
Ġph ot
ĠOct ober
is es
Ġtra ck
Ġindust ry
Ġr ate
ĠW ar
ide red
g o
Ġcost s
m ost
Ġup d
Ġhow ever
ĠC our
on y
Ġiss ue
TI ON
Ġve h
re ed
Ġcomp anies
ri ed
Ġsh are
re w
Ġtra vel
Ġfil m
Ġd am
Ġplay ed
Ġse lect
Ġrec omm
ep end
Ġ201 3
Ġincre ase
ĠO ff
Ġhum an
Ġin j
Ġb ody
Ġstr ateg
ĠD irect
A L
Ġl arg
Ġcare er
ce mber
b ook
ĠA b
ol l
Ġcontin ue
Ġmed ia
Ġro ad
Ġhapp en
Ġqu ality
Ġd i
Ġcons idered
Ġrele ased
ĠAug ust
ĠC or
ac hed
T h
w h
id es
Ġlear ning
Ġ2 4
ent al
Ġon line
ow s
ĠD es
n es
Ġproble m
er r
Ġa ge
Ġev idence
ĠF in
il i
Ġm iss
med i
Ġfoc us
ic ult
Ġnecess ary
Ġf ire
Ġneed ed
ĠC ons
c ri
Ġoff er
Ġcons um
Ġatt ack
Ġb ring
I C
ĠH is
Ġcol lect
ĠDe cember
o ff
Ġg round
t t
Ġbu ilt
g er
Ġdid n
i res
Ġcomm on
ĠP res
ra in
ĠCont ract
Ġk ind
Ġcol l
Ġbe gan
Ġ19 6
Ġrel ations
ove mber
Ġreg ul
ĠW est
Ġm ar
ul a
Ġ201 9
Ġf all
Ġask ed
1 1
ĠP er
g u
Ġt aking
ove red
Ġex c
ĠComm ission
Ġexp ect
ou ra
Ġl ive
Ġproper ty
ac es
Ġ /
c ast
ĠHe alth
Ġ5 0
Ġn ight
art h
Ġwr itten
on se
Ġ1 00
Ġro om
p ose
Ġl ink
u le
ĠG ener
on st
Ġ z
Ġst ory
Ġgr ad
om an
Ġty pe
Ġmin utes
Ġne g
Ġc ut
ob al
ĠCh rist
Ġpract ice
Ġhist ory
Ġcomp ut
Ġcond itions
ĠP lease
ic ip
Ġgo al
c hed
ill ed
ĠN ovember
Ġhig her
Ġpur ch
Ġt ell
Ġper m
Ã ©
Ġ201 2
ain t
p ect
Ġm akes
Ġlook ing
ĠF eb
t ime
o le
Ġcurrent ly
Ġinclud es
ap e
Ġnew s
Ġwebs ite
Ġw ind
Ġw a
Ġt reat
Ġus ers
Ġc ult
Ġr ange
Ġapp ly
Ġcharact er
Ġt arg
o id
Ġev ents
Ġdo ing
Ġpr ice
Ġsec urity
Ġorig inal
pp ing
Ġannoun ced
Ġeng ine
Ġo pp
ĠS w
Ġpl ans
a pt
Ġout side
a ut
Ġb o
Ġm en
ol ution
Ġso ft
Ġmus ic
Ġrec ogn
en c
b ased
ĠR ep
if f
Ġs ect
ip ment
ys is
ĠS ection
is on
Ġy et
id ay
it ution
ĠCount y
Ġup on
Ġcomplet ed
Ġte ac
Ġent ire
ĠB ar
Ġrel ated
iv al
our n
am s
ip le
Ġpol ice
E D
ĠK e
Ġdiff icult
Ġem ail
p ut
ecut ive
ĠI nt
o on
ĠComm ittee
Ġfor ward
Ġqu ick
Ġl angu
f ace
ĠG l
k s
Ġstate ment
Ġr ad
ers hip
Ġe ver
Ġde ath
ĠS ome
ĠAustral ia
y d
Ġpro ced
Ġfun ction
it ch
iqu e
Ġpro b
Ġ ,
Ġb all
Ġpr im
he ad
Ġwork s
Ġrec ent
B C
m y
Ġproduct s
u el
e gr
Ġl oss
Ġl ate
un g
Ġreg ular
s u
le v
Ġsaf ety
Ġto ol
du c
ĠU K
Ġsuccess ful
re ct
ĠP ark
ĠM ark
Ġinvol ved
Ġth ing
ĠPl an
Ġs at
Ġint rodu
Ġv ia
ĠAss oci
1 6
Ġvar ious
amp ions
it ter
ĠSt re
Ġinf l
a ign
and s
Ġfr ont
at form
om in
Ġl ic
Ġrele ase
c le
Ġvers ion
Ġsc he
Ġv ot
ition al
ĠA ir
Ġcom es
Ġ- -
Ġad minist
ic ro
Ġprodu ction
ĠH igh
Ġ #
y le
Ġqu al
ru ary
Ġw omen
ĠA ut
Ġse par
Ġrece ive
Ġa verage
Ġa ward
Ġdetail s
Ġdoes n
Ġ201 1
ĠH ar
Ġget ting
Ġab s
iv ision
ens ion
Ġapp oint
ver t
ĠA c
ĠAd d
Ġcre ated
um p
Ġbre ak
Ġproject s
Ġinst all
Ġb ar
Ġsk ills
ag n
om es
Ġprofess ional
Ġcont ent
if t
i ance
Ġl o
ĠS ub
Ġp ick
ĠPro gram
ĠD r
Ġp ack
Ġact ually
Ġl ed
Ġright s
Ġre d
Ġstand ard
Ġass ign
Ġshow s
Ġp ers
ĠLe ague
1 7
at ives
1 4
ĠTr ans
ĠFeb ruary
Ġteam s
Ġpub lished
el t
Ġgroup s
id ents
Ġbu y
Ġprovid es
Ġev al
Ġm atch
ond on
Ġres ources
Ġab ility
ve y
I T
ut ions
y l
Ġd ig
Ġbeh ind
Ġ201 0
Ġpropos ed
Ġst ation
ĠE l
ig ure
hip s
Ġh ost
.. .
u fact
id s
ĠComm un
ĠÂ £
c hes
Ġan t
as ons
att le
Ġbro ad
ĠP e
ud get
âĢ ¦
Ġt w
ĠIn c
osp ital
Ġan im
ĠA f
Ġthough t
Ġp ark
se qu
d en
Ġatt empt
Ġem erg
h am
ĠAr t
Ġr ather
il es
op s
ĠC he
um b
Ġresp ond
Ġj ud
Ġleg al
Ġim medi
Ġte xt
Ġrele vant
Ġcom ing
Ġintern ational
h ib
Ġweek s
Ġp age
Ġst ore
Ġl ove
Ġc ases
. )
or ing
Ġto wn
z e
Ġso on
Ġcons ist
Ġf ace
Ġb ase
al t
Ġf av
Ġcount ries
Ġvis it
ĠCh ina
ib r
Ġresp onse
ĠE duc
ĠL ondon
Ġref er
Ġopportun ity
Ġdevelop ed
ĠP a
Ġob s
ab les
ĠG erm
Ġreg ist
i ber
Ġs elf
Ġpriv ate
Ġlim ited
Ġpa per
Ġcop y
ĠW ill
os ing
at ural
ĠD is
ĠGener al
Ġgr ant
ra p
ur ance
Ġan sw
Ġappro ach
Ġh ous
Ġplay ing
Ġemploy ees
Ġcan not
ĠServ ice
1 3
and id
ĠR ed
Ġm ess
Ġsub st
Ġr ound
Ġp lease
sel ves
olog ical
us ion
ĠB u
Ġgrow th
Ġc e
ing ton
Ġre v
Ġpl atform
ĠG e
ic les
sp ect
Ġlevel s
Ġwho le
Ġal most
Ġwrit ing
Ġknow ledge
re qu
Ġcamp aign
ĠI I
Ġproble ms
Ġv i
ur b
ec ially
ĠO ther
end er
ĠG roup
Ġpro gress
ĠPres ident
Ġd ou
Ġequ ipment
Ġdesign ed
Ġl og
o e
ord in
ĠD ist
Ġm at
Ġm om
ĠBrit ish
n a
Ġset t
Ġet c
is l
ĠDe velop
ĠPro v
Ġle ave
Ġf ul
S t
Ġr out
b ur
Ġrespons ible
d le
Ġprogram s
al d
Ġmater ial
ĠJ ust
Ġm atter
Ġl ost
Ġreport s
Ġch arg
et er
um e
Ġfeat ures
ĠGo vernment
Ġlong er
' d
Ġs old
ĠCol lege
Ġ4 0
ro om
ĠCour t
Ġloc ated
Ġactiv ity
it er
itt ing
og le
Ġocc ur
r ate
Ġfund ing
Ġparent s
Ġ =
Ġpre p
rid ge
ĠEng lish
Ġ2 2
Ġst ay
ĠAcc ording
Ġs ell
Ġsaf e
m b
Ġde g
Ġc ou
Ġco ver
ĠS an
ip s
it ute
ĠD uring
Ġ ri
re me
Ġst ri
ag ed
Ġpa id
ad es
Ġbelie ve
Ġind epend
Ġschool s
et t
er a
Ġs ound
Ġl ower
Ġn amed
Ġrun ning
Ġar ri
Ġ2 1
ĠK ing
g round
Ġw alk
Ġr ules
at ur
ĠC O
oci ety
Ġtrans fer
Ġpre vent
esp ecially
Ġor d
re st
Ġag o
Ġs qu
Ġorgan ization
Ġpart ners
Ġl ab
v is
ess ion
Ġagree ment
Ġide a
Ġbeh av
Ġpop ulation
Ġs ource
a ult
ear ch
ĠEurope an
Ġb it
Ġf ight
ĠInd ia
ĠH er
Ġatt end
Ġexp ress
ĠIntern ational
Ġconst ruction
Ġapp l
c o
Ġn orm
ĠR uss
Ġs ize
is ation
av y
Ġse ek
Ġar r
ak er
Ġdec l
Ġint egr
ĠServ ices
Ġp o
g es
I n
Ġc ell
c er
Ġprot ect
Ġoffic ial
Ġbas is
Ġh it
Ġin form
re l
rib ution
Ġenc oura
r ast
Ġb illion
Ġwork ed
Ġmed ical
A M
il le
ist ic
2 5
Ġlangu age
ĠF irst
Ġman ufact
S T
Ġw or
ric k
an ced
ap an
Ġad j
ob ile
port s
Ġd est
ĠCent er
Ġsoft ware
av ing
Ġt able
Ġp red
Ġtarg et
Ġw ide
u ge
ĠEng land
Ġst e
2 00
b or
ir t
Ġgo als
ĠV al
Ġpr inc
Ġexist ing
Ġca pt
ĠStre et
n ov
Ġex cept
c ome
ĠCal if
Ġcustom ers
Ġ19 4
Ġf low
Ġestab lished
Ġrem ov
Ġpur pose
ĠOff ice
ĠPro ject
f ord
Ġm or
Ġthrough out
C C
ĠA nt
Ġassess ment
ĠGo ogle
ĠH ouse
ĠM y
Ġallow ed
Ġtit le
Ġw ays
Ġv ict
ĠT w
Ġ especially
ĠM ore
Ġpop ular
ĠN ow
Ġe y
l t
Ġcont ain
ce ll
Ġanal ysis
Ġre ve
ure r
Ġg re
ĠA ng
u ate
Ġb ox
Ġsc ient
im ately
Ġnot ice
Ġdem onst
Ġ *
for ce
O T
Ġc y
Ġc andid
f ield
i ation
Ġeconom ic
Ġgu id
ac ity
Ġexper ien
ry pt
l ike
Ġus er
r am
ĠD on
Ġspe ed
Ġe p
Ġ2 3
Ġ ut
n ces
ĠS en
ĠM ond
Ġt en
h ing
Ġc ross
act ion
Ġ ill
Ġnum bers
ven ue
Ġqu arter
Ġinter view
Ġsc ore
l oad
er ia
an a
air s
Ġac qu
Ġst ates
ĠFr iday
p art
Ġm ind
er ve
Ġmater ials
Ġappro ved
ĠJ apan
Ġ200 9
Ġtrans port
ĠCalif orn
ĠJ e
se c
f ort
Ġm ass
Ġident ify
Ġplan ning
Ġmov ed
Ġpolit ical
adem ic
ĠEduc ation
Ġp ie
Ġtry ing
ourn al
a ur
he st
ĠS m
ĠSp ec
Ġc ode
Ġprovid ing
Ġt ask
ĠF orm
Ġdirect ly
pp er
Ġdescrib ed
Ġreg ion
Ġann ual
il s
enc ies
Ġit self
Ġaut om
ĠF rom
Ġword s
Ġdirect or
Ġinfl u
Ġl iving
ĠCanad a
Ġsa w
Ġear lier
A P
Ġdra w
Ġprom ot
Ġeffect ive
Ġh ope
Ġc ause
Ġmain tain
iv ity
ĠAf ric
g ing
Ġgl obal
ĠCaliforn ia
ĠMin ister
ar i
Ġcons ult
w ise
ĠP ri
iv il
Ġph one
Ġar ch
an ch
ĠG od
ident ial
- -
Ġloc ation
Ġag ency
rough t
Ġse em
Ġpos itive
Ġconn ect
g y
ĠU s
Ġinst ead
Ġachie ve
Ġserv ed
ĠH ist
Ġcred it
Ġ200 8
p ly
Ġwant ed
Ġs ong
Ġlear n
O S
ĠMond ay
Ġrec ently
Ġgo vern
j oy
ĠU p
en ces
Ġp ric
Ġsc reen
Ġfe ed
l ig
ar ies
Ġ ver
Ġc ard
h ood
Ġbenef its
ch ange
ir l
Ġit ems
Ġfund s
ac hes
ĠO ver
am b
Ġsign ed
ĠS und
in o
Ġmult iple
ro te
ĠAssoci ation
ilit ary
Ġstand ards
Ġsome one
ct ions
es tern
Ġb udget
ĠS ch
Ġinc ome
ĠPro f
Ġwork ers
ag ing
ud e
ĠAn y
ĠP at
Ġdem and
Ġ ess
Ġ2 8
Ġvi ol
ch an
ke y
Ġtr ade
Ġh ot
os ure
c ul
Ġ2 6
I D
Ġevery one
ap ter
Ġmanag er
Ġad op
ĠM on
Ġcontin ued
l in
ĠS k
Ġco ach
es e
ly ing
ĠAustral ian
ĠP ublic
it es
ou d
E M
Ġany thing
Ġl ack
a res
Ġthem selves
Ġw atch
Ġa im
Ġt akes
Ġcar ry
Ġover all
Ġincre ased
Ġb i
ĠSu per
it ation
Ġad m
w w
Ġs ens
Ġo p
Ġb ur
Ġident ified
ĠComp any
d e
ĠIn formation
ĠB us
Ġdec ided
Ġmeas ure
re am
ar ily
Ġh on
ĠO ffic
le b
ĠC up
Ġcor rect
Ġchall eng
Ġsit uation
ough t
ren ch
Ġg ra
Ġcap ital
ĠSt e
Ġorig in
ĠIn ter
Ġsum mer
cri ption
Ġphys ical
ĠF ace
Ġeff ic
ĠD em
ĠDirect or
m ing
Ġent er
Ġf ans
d own
im in
m a
Ġse arch
Ġb ad
Ġun it
le ments
Ġa ware
Ġfoot ball
Ġse ven
Ġis n
Ġpart s
Ġform ula
Ġd ied
itc oin
Ġ2 7
Ġrecord s
Ġdef in
Ġprob ably
du le
l ight
Ġg as
ĠW ed
Ġf ederal
ĠS ystem
n el
b oard
Ġn atural
ic ies
Ġapplic ations
ail y
ĠPl ay
Ġm ach
N D
Ġe ight
Ġto wards
op er
ir ing
ĠA re
w here
Ġl ay
Ġw rote
Ġst age
Ġd ut
o ke
ĠTe chn
r ight
al ed
Ġel se
Ġest im
Ġl at
Ġref lect
iss ions
Ġdep artment
Ġrecomm end
Ġeas y
se e
iz ing
ĠO ur
Ġde ad
Ġmon itor
Ġassoci ated
Ġf ile
Ġth reat
Ġv ote
Ġoper ations
Ġfor ce
Ġcon cept
ix ed
Ġindividual s
ĠRes earch
Ġcomm ittee
il ies
Ġal tern
ĠAmeric a
Ġn orth
Ġm ax
ag er
us es
ĠU nder
Ġfri ends
Ġlead ing
Ġe lection
Ġs em
Ġdis play
Ġext ra
m on
Ġrese arc
Ġbl ack
Ġst ructure
Ġs en
u ff
Ġen joy
o ice
Ġacc ord
ĠE ar
Ġevery thing
) :
Ġsu sp
Ġra ce
Ġsay ing
Ġcomp lex
Ġst op
h a
Ġg en
Ġpl ant
ĠM em
Ġim age
Ġlet ter
ĠL aw
ra w
ab ilities
ful ly
ĠT V
ĠD el
Ġp an
Ġp ict
ri ef
ĠP ort
Ġpay ment
ĠC ur
4 0
ĠS er
Ġoffic er
Ġf arm
Ġ19 5
R O
Ġcap acity
ist ry
ĠInd ian
Ġf irm
r ated
ĠS ince
ĠSund ay
Ġpre m
Ġtem per
et imes
Ġc oun
P A
Ġhe art
Ġ200 7
ĠMan agement
ĠT ues
he l
Ġcomp on
Ġregard ing
Ġin side
Ġs ales
ict ion
Ġstat us
Ġf requ
. '
ĠE ast
ĠSt and
eng th
ĠG reen
Ġcont ribut
Ġtreat ment
m ark
Ġestab lish
c raft
Ġcomput er
Ġo ption
Ġobs erv
Ġser ious
Ġsh own
Ġcom ment
Ġdocu ments
ĠB ank
Ġvol unt
es c
ĠD ay
Ġcent ury
Ġr ank
Ġleg isl
Ġcle an
ĠTh urs
U R
ĠR oy
om ing
Ġpart ies
Ġstart ing
Ġin sp
Ġopportun ities
Ġdist rict
E O
Ġs low
ĠE ach
Ġsu ff
ĠStud ents
ĠFace book
Ġdig ital
Ġb al
Ġveh icle
Ġdev ice
Ġcomm erc
Ġsim ple
or g
S A
ĠY our
i ers
ĠM od
f ect
Ġf ather
6 0
Ġhim self
Ġch ance
Ġg ave
ĠApp lic
Ġf ell
am ent
ĠWed nes
Ġimmedi ately
Ġoffic ials
Ġquick ly
Ġopt ions
Ġqu ite
Ġallow s
Ġdeterm ine
Ġst ru
ĠO ut
ĠTues day
Ġo il
Ġmin imum
Ġelect ric
Ġp ain
s y
g est
ĠT H
t ained
Ġreturn ed
ist ics
Ġsim ply
Ġs on
ro wn
Ġincre asing
y ond
Ġag reed
b it
Ġaff ect
Ġunderstand ing
ast ic
Ġre n
im ent
ĠH all
EN T
ĠH ere
Ġmom ent
Ġtr ust
Ġpat ients
Ġc ateg
v est
Ġtyp es
ĠThurs day
Ġaccord ance
r ative
Ġ6 0
Ġla unch
Ġb rought
v in
b on
Ġus ually
ĠWednes day
Ġinvest ment
ĠDevelop ment
ĠB re
E T
Ġus es
? "
i pl
Ġs ym
ul ed
ĠS atur
ĠR iver
ĠF rench
Ġfollow ed
Ġb rand
ĠDist rict
es ter
op h
Ġp en
Ġproced ures
Ġal though
Ġstre ng
Ġdel iver
am ing
Ġspec ies
Ġb ott
ĠR oad
Ġbenef it
Ġb and
her n
Ġinst ruct
Ġcent er
Ġs outh
/ /
ĠW ind
Ġf air
ĠApp le
Ġprim ary
ĠA P
Ġful ly
Ġn ature
Ġwho se
Ġnear ly
Ġf ast
Ġcol lege
ĠAt t
ĠL oc
b um
am a
Ġansw er
Ġpol icies
ic ation
Ġlarg est
Ġdev ices
Ġprevious ly
Ġemploy ee
Ġlist ed
Ġsp ent
Ġprodu ced
Ġnot e
Ġ2 9
Th is
Ġav oid
Ġro ck
Ġch arge
er ous
Ġp ath
Ġcond ition
ĠW ash
i very
Ġre ach
ak ers
en ge
ron ic
ĠC are
ĠR E
land s
Ġle ague
Ġh ospital
ct or
Ġorgan iz
Ġtr ue
Ġhist or
Ġpres ident
Ġinit i
Ġal leg
2 2
ĠBl ack
Ġv ill
Ġfam ilies
Ġst ar
Ġparticular ly
Ġact ive
ĠI r
o o
c ont
it iz
ill ing
ĠâĢ ¢
pos es
Ġem b
wo od
Ġbegin ning
Ġrelations hip
ic ated
Ġw orth
Ġs ources
Ġse ems
Ġne igh
ĠSatur day
Ġpress ure
Ġfe ature
ĠTe am
Ġsubm itted
ĠAg ree
Ġst ated
Ġdam age
Ġs ense
Ġc am
ret ary
Ġpre t
Ġ3 1
augh t
ee k
ĠD ata
Ġim m
: //
Ġst ock
y p
Ġr ates
Ġme chan
ĠDe f
Ġfr ame
Ġcl imate
) ;
Ġchang ed
Ġcontin u
u x
vent ion
Ġoff ered
av es
ĠRe port
ĠAl though
Ġel ig
Ġm ilitary
Ġm other
Ġnot ed
Ġd ro
Ġto ur
ĠCh ampions
ort hern
Ġcent ral
u k
ĠPa ul
ar a
o very
v ille
it able
Ġm is
Ġrem ains
ĠNew s
r is
ĠBus iness
ative ly
Ġs al
Ġopen ed
C A
Ġpur poses
Ġmean ing
Ġsect or
Ġcompet ition
Ġsu st
e ared
ĠY ear
Ġmeas ures
Ġsupp ly
ibr ary
it ect
S P
Ġt er
Ġun ique
c he
i et
Ġapplic able
Ġlat est
ĠQ ue
ĠD et
ro y
Ġrespons ibility
Ġd en
Ġex erc
Ġgiv ing
Ġd om
Ġlim it
Ġatt ention
Ġeff orts
ri al
Ġcoll abor
ĠL a
Ġde ep
Ġm ention
w ide
Ġra il
Ġiss ued
ĠS um
Ġfri end
Ġcou ple
Ġ200 6
ĠAut hor
Ġsur face
ĠCh ild
Ġappro val
Ġres idents
Ġmeet ings
Ġexp and
ens es
ra ck
ffic ient
Ġ20 20
Ġpl aced
W h
Ġgre ater
Ġoper ation
ĠTe x
ĠM icro
Ġdra ft
Ġsum m
ish ing
l iam
8 0
Ġinit ial
Ġ â
Ġcommerc ial
s et
Ġoper ating
Ġdri ve
Ġnot hing
ĠO F
ĠM ost
ĠRe ad
Ġeff ort
Ġex act
Ġrequ ires
ĠI N
ter m
ĠE U
el ines
Ġmov ing
Ġw all
Ġmajor ity
a e
ĠWash ington
Ġconcern s
b our
Ġstud ies
um n
Ġact ions
st on
ĠCl ub
Ġfac ilities
Ġart icle
ĠM et
ines e
Ġal bum
Ġun its
Ġprot ection
Ġredu ce
Ġeconom y
Ġtechn ical
k en
om p
liam ent
Ġclaim s
Ġdeg ree
Ġac ademic
____ ____
Ġread y
Ġmod ern
Ġsp ok
Ġtest ing
P S
er o
Ġl ives
Ġindepend ent
ĠS ur
Ġdis e
Ġser ve
let e
Ġh uge
Ġh op
iv en
Ġm ag
est s
ĠSt r
Ġla un
Ġsepar ate
ĠUn ion
ĠContract or
ific ations
ĠLe g
ĠPro t
Ġhous ing
Ġlead er
Ġemploy ment
Ġcommunic ation
ĠS im
Ġd ed
Ġpropos al
Ġsur pr
Ġcomp ared
ult y
L E
Ġc rypt
Ġsh ip
e xt
Ġsur vey
Ġce leb
al y
Ġb orn
Ġwh ite
ire ction
Ġmor ning
Ġsur v
Ġpro ceed
Ġre asons
ert ain
Ġpre c
ord er
Ġwe b
Ġ( "
id ing
ir med
sy ch
en ed
Ġro ll
Ġoff ers
Ġcor por
ĠAgree ment
Ġother wise
Ġauthor ity
Ġrepl ace
se mb
ĠF und
Ġpresent ed
R A
Ġbe yond
Ġsh ot
Ġt ru
Ġre b
Ġb ill
in ary
act ions
Ġacc ur
ĠB ec
ĠOn ce
ĠB ay
Ġsc ience
ĠRe qu
Ġsc hed
Ġch ief
ĠCh inese
en ing
ĠM or
ĠT wo
Ġl ines
ĠE arth
Ġcol lection
ĠR el
2 4
Ġ :
Ġcon ference
a id
Ġcirc um
Ġany one
or age
Ġturn ed
Ġfac ility
Ġwas n
Ġsol ution
om b
ĠInst itute
Ġval ues
p re
e qu
ĠCon st
w ell
Ġcl ick
ĠHist ory
ĠT or
so ft
F L
i i
Ġca used
ĠM any
Ġdes p
os ition
ther n
it ment
Ġdeterm ined
g en
Ġdef ined
ĠO f
ic ations
Ġun less
ĠB ra
Ġc at
ĠCl ass
Ġob lig
Ġtra in
e ed
i ant
Ġh tt
ĠD an
ograph y
Ġsh ared
Ġselect ed
p ond
Ġre ached
Ġgo es
2 1
Ġto uch
Ġeffect s
Ġfav or
Ġarr ange
ĠM id
Ġform s
Ġa head
Ġsm art
Ġsen ior
Ġhand s
Ġhig hest
ĠS T
ĠP ost
Ġcomm ission
Ġd og
el ine
rast ructure
Ġm obile
Ġenvironment al
Ġcl osed
Ġlarg er
Ġv ac
qu e
ĠL ab
ph one
ĠTw itter
Ġcl in
Ġl ength
Ġtra ffic
Ġemerg ency
ann el
Ġread ing
Ġpat ient
Ġm ission
ĠH ol
Ġgrow ing
ĠU se
Ġcomm and
Ġf it
et ic
Ġresearc hers
Ġexpl ain
rib ute
Ġpret ty
Ġsat is
ent ially
ĠPart y
Ġh or
Ġpric es
ur ning
Ġdevelop ing
ĠT im
Ġinj ury
H e
Ġcommun ities
Ġh our
Ġsh oot
Ġs end
ĠAl so
Ġc ouncil
Ġcho ose
et ing
Ġtool s
res h
he m
pl ace
ĠS af
Ġdisc l
Ġrecord ed
Ġcrit ical
Ġins urance
ag o
Ġad ult
Ġm ount
re c
go ing
ĠRe view
ĠO pen
Ġsupp l
ĠAng el
ĠD ec
Ġdel ivery
l a
Ġext reme
9 9
Ġbusiness es
use um
Ġf elt
Ġcal cul
ĠC ong
Ġthere fore
ĠBro wn
oc r
Ġadv ant
Ġjoin ed
ĠThe n
Ġ19 3
Ġt im
Ġst ruct
ĠB el
2 3
re y
Ġprodu ce
ord s
Ġex ecutive
lev ision
f l
Ġoffic ers
Ġprov ision
Ġs il
ĠM el
Ġsub s
Ġc ast
Ġdiffere nce
Ġcho ice
ĠPol ice
id a
Ġcustom er
ber t
ĠE ven
re es
Ġcar s
Ġadj ust
od es
Ġappro x
Ġteac her
Ġopen ing
ous ly
Ġch urch
Ġimplement ation
Ġ err
Ġide as
ĠW here
IN G
ĠProf ess
com es
Ġwr ite
ĠC ap
ĠSt ep
Ġu nd
Ġwe ight
Ġinc or
ĠCh air
ch ain
Ġst ra
ĠTex as
ou thern
ĠC ode
oc ol
Ġpass ed
t ies
Ġre fere
A TION
Ġrest rict
Ġdec isions
Ġche m
Ġmod els
Ġstep s
ĠM ac
Ġcont roll
ĠM ont
ify ing
b and
Ġgener ally
Ġin nov
Ġep is
ĠD ivision
Ġsp read
ĠWh ite
Ġl oad
ĠF ound
ĠS am
Ġst yle
Ġparticip ants
ru pt
ren cy
Ġn ation
Ġs n
und red
ĠRep ublic
Ġvari ety
ĠC le
P L
Ġveh icles
Ġcircum st
ir th
Ġown er
Ġtrad itional
Ġr ule
Ġbas ic
Ġt ick
C h
Ġd oll
Ġnorm al
Ġset ting
ic o
Ġg e
Ġfe et
ĠE v
Ġpurch ase
ĠM us
ĠCommun ity
Ġd irection
Ġl if
Ġperform ed
Ġg reen
ĠN ote
Ġg ives
B A
Ġinvestig ation
Ġpract ices
Ġ +
Ġra ised
ĠJe ff
M S
Ġsit es
ib ly
Ġsubm it
Ġw ife
" )
Ġ200 5
h aps
ub e
Ġsupport ed
Ġro b
I L
Ġcre ating
Ġth ous
ĠS ol
ut h
Ġg irl
Ġmethod s
ra g
ĠO per
Ġre ference
d om
Ġdesp ite
Ġc overed
se y
ĠT od
Ġas pect
Ġl iter
Ġhigh ly
ĠAn n
Ġg un
Ġfin ished
Ġc ivil
Ġshow ed
Ġconf irmed
Ġregul ations
ĠF ollow
lud ing
Ġpol l
Ġcon vers
Ġper fect
erv ation
Ġappear s
ĠK ore
h ouse
Ġu lt
I P
C E
ĠEx ecutive
ĠE lect
7 0
5 00
Ġcom ments
ĠCh ar
Ġrun s
Ġprocess es
ĠMicro soft
H S
Ġhelp ed
Ġlook s
Ġstrateg y
Ġp oor
am m
Ġb rief
Ġinc ident
Ġch air
C O
Ġfact ors
Ġe lements
Ġre pe
Ġh ol
y pe
Ġjob s
Ġpre par
tern al
Ġupd ate
an cy
ĠM ain
Ġg raph
ar io
t ers
ĠG old
s es
ĠJ ack
ad o
ĠH um
Ġapp eal
Ġsom etimes
ar ant
ce l
Ġw ants
ĠSu pport
ĠOr gan
i os
r ig
ĠWh y
Ġteac hers
Ġconduct ed
Ġc ash
Ġbig gest
ĠS ocial
Ġcomplete ly
Ġunder t
ur ation
Ġdiscuss ion
Ġd aily
ĠL et
r ay
Ġw oman
Ġbro ther
Ġapp eared
Ġmid dle
ĠP erson
ac ing
Ġg ain
ĠW ell
Ġpl aces
Ġintrodu ced
Ġcar ried
Ġmax imum
Ġchall enge
Ġc ore
om et
Ġfore ign
Ġke pt
Ġappl ied
ĠM ich
Ġte aching
Ġocc up
ĠÂ §
m p
R E
m ore
ĠFr ance
olog ies
Ġc itiz
ĠF ore
Ġbook s
Ġlead ership
ul ations
ĠCh urch
ĠR em
Ġevent ually
Ġlaun ched
ric ult
Ġdis p
ĠAd minist
Ġwr ong
Ġr at
ĠM ot
on a
Ġmess age
Ġreport ing
Ġhe ard
ĠSc ience
ĠD isc
ĠSt ar
ĠCh ief
Ġdri ver
hen s
augh ter
Ġfl oor
ten ance
it ude
r im
ĠP al
Ġb oy
Ġar gu
r ant
Ġappoint ed
D A
Ġstru gg
ĠLe ad
er ry
ĠSc ott
ĠT able
Ġaff ected
us ing
Ġvolunt e
Ġw el
Ġfe es
e g
Ġcult ure
ag raph
ib ilities
Ġeas ily
Ġp et
Ġair craft
u ated
i j
Ġpart ner
Ġcl os
ĠI T
Ġn ames
Ġclear ly
ĠPol icy
ent y
Ġlook ed
Ġen h
Ġfollow s
ur t
Ġassist ance
Ġp il
ĠM art
Ġ8 0
Ġconn ection
Ġfour th
stand ing
Ġf ee
o ly
Ġpat tern
Ġcircumst ances
Ġcrit eria
Ġmove ment
ĠGerm an
Ġex change
ĠIs land
9 0
ĠE very
B S
ou l
i able
Ġbuild ings
U S
Ġspec ified
anc ing
z a
Ġinterest ed
Ġdou b
Ġ20 00
ot a
ip al
Ġconst ruct
ĠS al
Ġfin ally
us ive
lic k
Ġcent re
ound s
Ġsp orts
ĠC EO
ĠI d
Ġp ow
Ġreason able
Ġsc ale
Ġsur round
ĠStud ent
d ing
ĠPh il
Ġsust ain
n y
Ġgr ade
Ġval id
ĠFl or
Ġget s
Ġle aving
Ġact ual
ve re
Ġf igure
Ġlaw s
Ġatt ract
Ġop in
Ġcontin ues
Ġf ig
ĠF ederal
Ġsub sequ
Ġrad io
Ġret ail
Ġinf rastructure
ĠB en
E L
if ically
Ġqu ant
Ġcol or
Ġg old
Ġsche dule
Ġre nt
Ġform at
ĠSc ot
om s
ic a
Ġnot es
ĠL ast
Ġob tain
adem y
Ġadv ice
ĠPe ople
T C
un icip
i ency
os h
Ġlead ers
Ġsa ve
ri e
ĠC amp
Ġdef e
ed s
Ġsc en
ĠPh ot
4 5
Ġw ild
ĠJ ose
ĠM al
ĠT re
ĠCent ral
Ġte le
Ġparticip ate
Ġd ang
a per
Ġad vert
Ġhe aring
por ary
Ġcall s
Ġfail ed
Ġint ended
ĠWind ows
Ġplan ned
att ers
Ġ x
1 00
Ġs ale
Ġb id
Ġj ournal
ul ated
Ġh undred
ver se
I f
Ġhappen ed
Ġc ool
Ġun iversity
Ġ9 0
Ġhapp y
Ġrefer red
Ġ ice
Ġ200 4
ĠHe ad
ĠA C
com ing
z z
Ġremov ed
ĠB itcoin
Ġorgan is
Ġadd ing
Y ou
cept ion
se ction
Ġst orage
Ġass um
ĠM ary
ĠP C
we et
Ġauthor ities
ĠFr anc
ĠP et
ĠV ir
im b
Ġ @
Ġd at
Ġag encies
Ġelig ible
A s
ĠU N
Ġon es
Ġprep ared
Ġsmall er
ĠN ame
Ġbl ood
Ġneg ot
omm od
ĠRoy al
ĠSpec ial
iver se
Ġl ock
ir it
Ġarch itect
Ġe th
Ġmanag ed
Ġ esc
Ġprogram me
Ġdo or
ĠR ob
ĠW ater
ĠW il
Ġintern al
Ġs le
Ġsp ot
ĠP ay
Ġh arm
Ġtri al
Ġ ur
Ġdist ribution
' .
ĠG ood
Ġorganiz ations
Ġend ed
Ġinst ru
un k
Ġsec ure
il ed
Ġf uel
ĠDes ign
ĠB ack
ri an
Ġp ush
Ġreve aled
ĠCanad ian
g ment
it ors
3 5
i us
Ġn ar
Ġconf lic
Ġwin ning
Ġanal y
P h
Ġexper t
Ġcompl iance
ĠAn other
R C
p m
Ġeval uation
ĠL ear
Ġannoun ce
o es
at ically
ĠV ol
Ġhe ar
Ġd rop
Ġman ner
Ġpie ce
Ġ19 0
Ġass ets
F C
ress ion
ĠTr ust
2 6
ĠAfric a
Ġs y
Ġsu n
c are
row s
ĠO b
al ty
ĠSec ond
Ġn ine
ploy ment
Ġthink ing
S S
Ġreg ional
Ġp le
ĠTh ank
u gh
Ġpr int
ĠN or
Ġdr ink
Ġdou ble
gr ad
ĠEx p
Ġfun ctions
Ġb atter
k n
m en
ĠTH E
ĠF ire
y an
r s
2 7
ĠS ociety
Ġsupport ing
ĠH ome
Ġinst itution
Ġwe ather
Ġdise ase
ĠR o
i ate
Ġequ al
Ġdeb ut
iz es
ur ies
Ġc ities
Ġdep art
Ġtri ed
Ġad apt
Ġco ordin
O L
est ic
Ġte levision
Ġf em
ĠMan ager
ĠT it
Ġ3 5
Ġremain ing
Ġco ast
Ġhe at
Ġm iles
Ġmonitor ing
The re
Ġth us
ĠCent re
Ġmin or
Ġbe g
ĠT ime
Ġm ill
Ġfeed back
ĠS l
Ġd er
b ox
Ġar g
anc he
Ġpass eng
Ġb ound
Ġcomp ar
ĠH ill
Ġwh om
Ġsc ored
Ġpred ict
ĠD av
ĠB oth
Ġv irt
Ġaccept ed
Ġl abor
ĠY es
Ġadv ance
ĠA ND
Ġ7 0
Ġent ry
Ġs ociety
az on
Ġw at
i pped
ĠT est
ĠB ill
ĠB ur
Ġbec oming
Ġtrans m
Ġaltern ative
Ġapprox imately
ol f
Ġun c
Ġn et
Ġpers ons
Ġex cl
Ġan g
Ġim ages
i ability
ĠL u
Ġelect ed
at ures
Ġvill age
A D
il ing
Ġaward ed
ĠOffic er
Ġback ground
ĠCong ress
ĠTh om
Ġbe aut
Ġk illed
it z
Ġinterest ing
ĠN etwork
T S
Ġse a
um ber
Ġspe ak
Ġse qu
b re
un ction
Ġex hib
Ġr ise
it utions
Ġfor ces
Ġtemper ature
ree k
Ġbehav ior
Ġdis app
Ġregist ered
ĠR ich
Ġmot ion
Ġcl ient
Ġstreng th
ro id
Ġre venue
Ġrece iving
Ġrout e
i pp
y ing
Ġprov isions
n ings
s k
ĠSec retary
Ġadvant age
i ples
Ġmin ister
Ġme ant
cri pt
2 8
Ġto ward
Ġcandid ate
ber g
ĠT O
ĠA ward
Ġal one
Ġf ine
ell ig
Ġw ond
Ġs ession
Ġfl ight
ĠG ame
Ġent ered
res pond
ner gy
ĠPre m
Ġform ed
Ġout comes
Ġrec ip
ĠEn vironment
Ġw ood
ĠJ ud
u ations
ĠFlor ida
Ġcharact ers
Ġdetail ed
ĠL and
ign ed
Ġparticip ation
Ġb ul
im al
Ġa p
Ġchalleng es
Ġold er
Ġinvol ve
ĠN et
ĠA v
ĠG reat
ĠS ing
Ġbal ance
I R
ĠM o
Ġshow ing
Ġm ap
Ġstra ight
ad ium
Ġhe avy
ĠP ower
Ġincor por
Ġd aughter
Ġfail ure
Ġdep end
ĠBec ause
b ody
Ġex ceed
ĠEn ter
Ġcour ses
Ġto urn
ĠFound ation
ĠF am
hold ers
N A
Ġacc ommod
Ġv oice
Ġsp end
ĠIntern et
Ġit em
Ġg rand
Ġconf irm
Ġren ew
Ġyour self
ru g
Ġestim ated
ĠRuss ian
ĠR ad
Ġh omes
Ġbott om
Ġdef ense
it ness
Ġweek end
Ġs pl
ell ing
Ġbehav i
Ġb attle
Ġpost ed
Ġuse ful
Ġcont ext
ĠW estern
Ġem ot
Ġw arm
Ġon to
ĠW ood
ĠL ee
Ġmach ine
Ġanim als
ild ing
Ġd ark
Ġallow ing
Ġaccount s
p ret
Ġst ress
Ġh ar
Ġtre nd
uc le
Ġt al
Ġdest roy
Ġc ru
he t
Ġut il
Ġman age
ck now
ĠC re
Ġar rest
Ġf if
Ġb rain
re land
ĠT own
id ers
I A
Ġdri ving
Ġ200 3
Ġsp ons
Ġdown load
semb ly
Ġcont ains
Ġpay ments
Ġw ish
l ines
ĠEng ine
Ġgood s
ĠGerm any
ĠMem bers
Ġcre w
h ab
ĠE r
Ġbec omes
ro ad
ĠA lex
Ġsched uled
Ġch ampions
Ġtest s
Ġassign ed
Ġeduc ational
ĠE st
Ġb irth
Ġpre fer
Ġclass es
Ġcrit ic
ĠM ount
Ġch art
Ġrel ation
Ġdeb t
M P
ĠWill iam
Ġexerc ise
ĠM ad
ant a
7 5
Ġwas te
Ġcon v
ĠSec urity
ĠSc he
b l
Ġfl ood
Ġwe ap
Ġperson nel
Ġj oint
ce an
Ġim pl
) (
ĠM att
Ġsl ight
Ġsuggest ed
ĠK n
Ġexact ly
Ġl ik
Ġent it
ĠW in
Ġinflu ence
m ond
est ival
2 9
Ġrec ru
I I
Ġcar bon
ĠM iss
Ġfor ced
ĠAt l
Ġkn ew
ĠF ac
ir us
in ct
ĠF urther
ri er
ĠB et
esp ite
Ġdes cription
Ġmanufact urer
Ġrequest ed
Ġres erv
an o
Ġhouse hold
Ġst o
ĠT om
ĠB ig
Ġm ental
Ġp sych
Ġmain tenance
Ġdist ance
Ġsol ar
Ġprovid ers
m es
Ġcompon ents
Ġe ast
Ġw est
Ġsubst ant
Ġrel ig
ag s
c ial
M A
w ith
Ġdef end
ĠLoc al
Ġocc as
Ġrem ained
ĠL os
Ġmov ie
Ġdist ribut
ĠR ock
Ġthe ory
Ġsc ene
Ġown ed
Ġe c
Ġredu ced
Ġst ake
or row
w in
Ġpur su
ĠRuss ia
Ġrequire ment
Ġp up
Ġey e
Ġin put
ĠAm azon
Ġoff ering
Ġmot or
v an
ĠR et
Ġs ort
ĠS ee
ĠQ ual
ĠM P
Ġrepl aced
Ġ ir
ĠL ake
Ġmention ed
Ġapplic ant
Ġm er
Ġgener ation
Ġsche me
Ġc reat
in y
Ġf resh
ĠAss ess
Ġcoun ter
Ġar m
Ġcharg es
ab led
Ġsp ort
C H
Ġstre et
Ġorigin ally
ĠIn vest
kn own
ive red
ans ion
Ã ¡
Ġra p
, '
Ġse lection
ic on
Ġs ch
b ed
Ġmark ets
Ġguid ance
Ġlic ense
u a
Ġprovid er
Ġpar agraph
ĠD ate
Ġelect ronic
ĠE nergy
Ġorgan isation
r d
Ġaff ord
Ġneg ative
Ġext ent
l usion
ĠAr my
Ġexpl ained
ear s
Ġfac ulty
Ġres ol
ĠB o
ĠG rand
Ġrest aur
Ġ4 5
ĠCh ic
Ġco verage
Ġinterest s
Ġsu fficient
Ġmar ried
or ter
Ġc ards
Ġra re
ĠS pe
Ġcr is
Ġmarket ing
Ġprofess ion
Ġmult i
b ol
ĠD en
ĠI reland
ĠM ill
u it
Ġfoc used
ĠEx pl
y er
ĠCon f
ra b
Ġsol utions
ĠM ag
Ġlegisl ation
isc o
Ġw id
Ġper man
Ġprom ote
Ġbl ue
ĠF igure
ĠAr ch
ĠIn s
Ġdel ay
Ġpict ure
ĠVir gin
Ġsh ut
w est
ĠM s
Ġg one
Ġwith d
Ġob vious
ig ation
w ater
ain ts
ut y
Ġown ers
ific ate
all ed
Ġm agn
Ġfil es
urb an
ĠArt icle
Ġtrans l
Ġloc ations
Ġat h
Ġess ential
ĠG al
ĠL ist
Ġdut ies
C S
ar ian
Ġconsist ent
ol ars
Ġh om
Ġcor respond
ĠE qu
Ġcitiz ens
et te
Ġt end
ĠGo vern
Ġpres ence
Ġeffic ient
Ġproper ties
Ġob tained
a ith
F A
ĠO h
ĠCor por
ĠAuthor ity
Ġsp ending
Ġh yd
Ġcomm itted
ĠQu est
Ġvict ory
D P
Ġencoura ge
Ġfind ing
ĠZ eal
ĠAc ademy
er ation
Ġconsum ers
Ġwa it
Ġconst ant
ĠR ay
Ġcam era
ĠD espite
Ġclaim ed
Ġall oc
Ġthous ands
Ġbroad cast
Ġcamp us
Ġcl ients
Ġrisk s
Ġc oin
Ġcomplet ion
Ġa cknow
row d
ore s
ĠZeal and
Ġspec ifically
yn am
Ġk ick
Ġun able
om a
Ġyou th
ĠH el
E P
Ġimpro ved
ĠWe b
Ġchem ical
ien ces
ĠC ard
ĠP ac
Ġdescrib e
ĠJ es
Ġconn ected
Ġadv is
Ġen force
ĠAss ist
Ġadminist ration
ĠAngel es
ĠRes p
Ġlear ned
Ġvict im
Ġk ids
ĠR ail
ol ute
Ġdel ivered
Ġrem ember
act ive
Ġdisc overed
ĠCar l
Ġm atters
m et
Ġfind ings
Ġp air
ĠAg ency
ĠE conom
ĠSt aff
Ġfore st
pro f
Ġfil ed
ĠDem ocr
Ġv ision
Ġintern et
Ġexperien ces
ili ar
ĠSu pp
ĠL ong
os en
Ġconcern ed
ĠBrit ain
Ġepis ode
Ġex ternal
Ġmembers hip
b orn
Ġst ories
Ġpos itions
Ġst orm
Ġh ab
ĠR od
Ġframe work
Ġen able
lud ed
Ġdiscuss ed
Ġim ag
ĠP an
Ġare n
ra el
Ġfac ilit
Ġm icro
Ġd u
Ġf ra
ĠScot land
Ġe lement
ĠC y
ĠA M
Ġcomp ens
ĠHum an
g l
Ġinst itutions
ĠT imes
Ġcertain ly
red it
Ġimport ance
Ġpan el
r ad
Ġcons ent
ĠChic ago
Ġd ivision
Ġblock chain
Ġhelp s
ou nder
Ġam end
Ġfl u
Ġra ise
ĠA ud
ĠP ract
Ġstrateg ies
ĠS un
Ġconc ent
Ġgu ide
Ġalleg ed
ĠA T
Ġhold ing
Ġey es
Ġvis ual
Ġexam ples
Ġto w
ell ow
Ġpl ants
or ial
Ġre ality
l ist
ĠM at
Ġext ended
Ġpartners hip
Ġsp ect
Ġ3 6
am in
Ġscient ists
ul ner
se ason
Ġb an
on n
ow l
r ical
ĠCar ol
ĠThe ir
ĠCon n
ap ers
ang es
Ġtalk ing
i pt
ĠG et
Ġprocess ing
Ġcom fort
Ġgu arant
ul ate
ĠB as
rel ated
Ġpower ful
od ies
ph as
ĠFor ce
y a
Ġset s
ite ly
p oint
re hens
Ġcomb ined
am ples
Ġa w
Ġcontract s
Ġno vel
is hes
iqu es
Ġtri p
Ġcandid ates
Ġon going
ĠRe v
wh ile
s en
i xt
Ġmiss ing
ĠF ort
L A
Ġbelie ved
ic it
ly mp
ĠCon ference
com m
Ġs ample
ĠL ife
Ġfin ish
Ġr an
Ġrepresent ative
as c
ĠA S
Ġpl ays
Ġb ra
Ġeas ier
ĠP ress
Ġcon sequ
Ġmem ory
Ġ199 0
Ġrecomm ended
Ġre ject
or ney
ul um
Ġlo an
ĠTechn ology
Ġtrans ition
Ġchang ing
Ġregist ration
Ġvol ume
Ġmost ly
Ġph ase
ĠJ er
Ġper haps
Ġsp ring
Ġb ond
ĠT op
Ġf le
Ġdat ab
Ġcell s
Ġl iqu
if ul
ĠComm on
iven ess
ist an
Ġimp ress
ic ed
Ġcult ural
Ġcomp ly
a ud
Ġcor ner
Ġ200 1
Ġm and
ig an
ĠT ur
d d
Ġtyp ically
Ġbe at
f r
Ġhelp ing
ĠB er
Ġp ul
ĠEar ly
Ġfig ures
ĠI D
Ġeffect ively
Ġc ook
Ġtrad ing
ĠB i
sec ut
ang ing
Ġout put
ĠSaf ety
ĠBe fore
Ġst ations
l i
Ġdis ability
on om
Ġbl og
ĠAnd roid
Ġsol id
Ġproced ure
Ġ200 2
ĠCh apter
Ġm ig
Ġd omin
Ġaud ience
Ġ5 00
Ġguid elines
Ġra in
inc luding
ĠW eek
Ġconsum er
ĠS il
Ġde pos
Ġam b
Ġt rou
ing er
Ġ ...
ĠSp ace
ĠO lymp
ĠD ar
ĠMe x
ont o
Ġrap id
Ġupd ated
Ġopin ion
Ġkeep ing
Ġwill ing
oc ur
Ġgrant ed
ĠIs rael
ag ues
Ġjud ge
Ġequ ival
m ail
Ġcris is
Ġclass room
Ġsee ing
Ġt ro
Ġd iv
ĠTod ay
Ġcollect ed
3 3
ĠJapan ese
e v
ess ions
Ġdec re
bur g
ĠOn ly
Ġimprove ment
or ation
g ar
Ġro t
ĠV er
ĠA ff
Ġdec ide
ĠS ign
crib e
ĠF oot
ĠN AS
Ġsupport s
Ġwind ow
Ġpro spect
ĠChampions hip
ee ch
ĠYou ng
Ġex cell
Ġen roll
ĠJ oe
Ġis land
Ġj ump
ĠR oman
ĠL iber
' ,
Ġ |
ĠC ast
Ġform al
ĠM il
Ġextreme ly
az ing
Ġdocument ation
ĠChe ck
Ġcount y
Ġco oper
Ġp ull
Ġf lex
ĠL ord
Ġanim al
h an
k er
Ġrem ove
Ġf an
Ġdesign ated
ĠIm age
Ġgu ard
Ġdri vers
Ġm ent
ab y
ĠSp an
Ġpercent age
ĠM ember
Ġres ist
Ġconsider ation
Ġadop t
Ġarri ved
Ġrel atively
ĠM er
ĠSt an
Ġse asons
ĠWh o
Ġm unicip
ic ian
ĠSt at
Ġcol umn
l aw
Ġcharg ed
Ġd ivid
fere nces
Ġp ip
ard en
all s
ĠJ im
ĠVal ley
ĠV is
sh ire
Ġf ixed
Ġdisc ipl
ĠA ccess
Ġinvest ors
Ġterm in
Ġm ist
l ife
ĠPr ime
Ġres olution
ĠAd v
n o
ĠPar liament
Ġl ibrary
H L
ĠD ou
Ġexperien ced
Ġe arth
ĠFollow ing
ĠSum m
ĠH aw
Ġtal ent
Ġag ent
m as
ĠChild ren
Ġco al
ĠC ost
ol ic
ĠB est
Ġm ix
Ġinter pret
Ġclin ical
Ġresult ing
O C
is her
Ġoper ate
ĠIt s
out s
T A
g a
Ġ3 2
Ġcomm itment
ĠB ook
ĠOr der
Ġindic ate
Ġsignificant ly
Ġatt ended
Ġcateg ory
ill a
Ġphot o
Ġdut y
ens ions
ĠT erm
Ġc rowd
Ġdis m
! "
ĠW ales
ag ram
Ġscient ific
Ġinstall ed
ĠS ports
Ġc atch
I G
Ġinst ance
Ġsh aring
Ġn ucle
Ġri ver
ĠL o
g reg
Ġprom pt
ĠIn f
Ġbeh alf
Ġrequest s
Ġfound ed
ĠIm p
Ġan c
Ġdevelop ers
ĠTra ining
en ced
ĠL ike
Ġexp enses
ĠM ass
ric ulum
Ġsh ares
Ġre form
Ġtourn ament
Ġch apter
Ġb ed
Ġseek ing
ĠN OT
on ald
Ġinform ed
ĠJ o
Ġbut ton
Ġobject ives
ĠA D
Ġask ing
p ass
ĠF e
i ary
ĠC r
Ġfact or
ĠMed ical
Ġy ards
Ġgl ass
ĠKe y
ĠS y
az ine
ĠFranc isco
ĠTor onto
Ġv ulner
ĠM ax
ri pt
Ġstart s
ition ally
Ġcl oud
The y
Ġ er
Ġch annel
Ġl ov
up s
Ġadv anced
ĠC ustom
and er
Ġded icated
Ġag ricult
ĠI P
ĠVirgin ia
ĠEx per
at al
Ġdec ades
ens ity
Ġm aster
Ġsw itch
Ġf ill
Ġn av
u nder
ir ms
Ġsatis f
Ġtask s
Ġres ource
Ġst ick
Ġhealth y
Ġstand ing
Ġbank s
Ġaspect s
ĠL ou
ĠL im
Ġr ough
Ġprep are
ĠTrans port
Ġl ose
Ġadv oc
Ġhe av
Ġse at
Ġse x
ĠN orthern
Ġtechn ologies
Ġest ate
ur is
ff ect
amp ion
Ġacc ident
ant ic
Ġmod e
ĠC P
ad d
Ġn or
ab in
Ġview s
Ġcould n
ate ver
Ġdirect ed
as tern
al ing
ĠInd ust
Ġem issions
Ġatt ached
Ġhapp ens
Ġoccur red
Ġp ool
Ġrecommend ations
9 5
k i
E W
Ġfield s
Ġsqu are
h i
m osp
Ġpl us
Ġun ivers
Ġter rit
A F
ĠMed ia
ĠAfric an
Ġappear ance
ĠFin ancial
ĠH am
ĠF il
lud e
Ġmat ches
Ġhigh light
Ġstate ments
Ġt ack
Ġret ire
ad a
ĠW al
it a
Ġsecond s
Ġ <
Ġant i
Ġapp arent
Ġtw ice
reed om
f ol
Ġinit ially
Ġcompet itive
S I
ĠD u
ĠPr inc
ĠC ON
Ġrel ating
ol a
Ġsh ape
ĠS P
Ġf ish
ĠN FL
Ġun ion
ĠTh ose
ĠSh ow
Ġmass ive
Ġconf idence
ĠF ield
k ins
Ġ )
e z
Ġa id
r ator
Ġphot os
Ġpro p
Ġout l
ĠM ike
ĠPer form
Ġpresent ation
ĠP enn
Ġ3 3
Ġadop ted
Ġindust rial
Ġso le
pect ive
Ġsle ep
Ġnegot i
Ġachie ved
ĠE nd
Ġrelations hips
in n
it ure
Ġserv ing
Ġc old
Ġnew sp
Ġport ion
o oth
Ġcorpor ate
ĠS om
Ġw itness
Ġg ar
Ġindic ated
Ġwould n
ĠStand ard
ĠSen ate
Ġcrypt ocur
Ġve ter
Ġwa iting
ĠCur rent
Ġear ned
ĠGr ant
Ġpark ing
ĠPro pos
Ġexper ts
ĠM a
Ġdoll ars
ind er
Ġch ain
ĠS qu
c her
ĠW he
Ġgu ys
Ġex ecut
i pping
Ġem phas
Ġengine ering
Ġpil ot
ĠApp ro
ĠâĢ ¦
Ġabs olute
ren ce
ĠE s
Ġn ice
ĠH ospital
ĠF red
Ġfam iliar
l ock
Ġv ent
Ġobject s
Ġb ridge
Ġcol le
Ġfeel ing
ĠG ar
Ġp ages
art ers
Ġpurch ased
Ġinstruct ions
Ġext ension
al le
l or
us hed
Ġlic ens
ĠB BC
Ġadminist rative
U T
Ġentit led
ellig ence
Ġcompl aint
Ġspok es
Ġun f
I M
ĠA R
om pl
re te
Ġcr im
ost on
Ġdom estic
Ġh y
Ġcomb ination
ĠE ric
if ies
L S
Ġv oc
ĠM ars
ĠH on
Ġslight ly
ĠR yan
ĠC D
Ġstore s
Ġent ity
wh ich
Ġcont est
igh ter
6 5
ic ine
T V
ĠStr ateg
Ġs an
Ġimplement ed
our ney
Ġconflic t
it age
ic ial
vis or
Ġsqu ad
Ġl ived
Ġf ix
Ġs ides
x it
ĠPart icip
ĠG re
Ġst ars
Ġd ates
Ġun like
en ch
Ġd ry
ĠT er
ail s
es sel
ĠC ert
Ġ199 9
res ents
ĠBl ue
Ġfeat ured
Ġtechn iques
qu ir
ĠCarol ina
Ġprinc iples
Ġtre es
Ġmin ute
Ġ18 8
Ġsign s
d ate
Ġpie ces
Ġt ree
Ġt un
Ġequival ent
Ġnum erous
se ll
n s
Ġse vere
us band
Ġz one
ĠF ree
he w
ĠCont rol
Ġst uff
Ġ( @
ĠMus ic
Ġrespons ibilities
ograph ic
Ġdemonst rate
ens us
ĠM useum
ĠO ld
uris d
ĠInst ead
c oh
ĠI S
ĠI ll
Ġord ers
ĠC H
Ġ198 0
ĠT em
Ġsuggest s
ĠGe org
Ġcl ar
Ġreg ister
Ġcre ation
Ġincre ases
ĠL abor
ĠG reg
oth ing
Ġfem ale
Ġnetwork s
Ġpot entially
Ġth row
ĠSpan ish
ĠApplic ation
ĠPar is
ol es
ul ing
ĠLear ning
Ġcrim inal
Ġexp ansion
Ġplan et
ay er
a el
r ates
ĠFr ank
Ġelectric ity
Ġ ign
Ġeng age
Ġmy self
el ess
Ġput ting
I V
Ġbelie ves
ĠR am
Ġcall ing
ĠS ir
r um
ĠE xt
Ġdi agn
Ġm ail
r ations
ĠAssess ment
Ġmay be
oc key
le vel
ang ed
Ġp un
Ġthan k
ad ing
Ġneigh bor
ĠTh ree
Ġpack age
Ġhtt ps
ri age
ing u
ĠJ ournal
Ġsect ions
Ġalong side
Ġsp irit
ER S
Ġconsider ing
Ġpriv acy
Ġdro pped
Ġacqu ired
Ġapp rec
ĠJust ice
ĠH ot
ĠE nt
Ġrep resents
ĠB oston
Ġnear by
Ġout come
ĠP RO
Ġcopy right
ĠR ober
p ool
Ġpe ak
Ġb ird
Ġt ank
ĠAb out
ĠLe vel
ĠFam ily
k a
Ġinv ent
ĠMin istry
Ġcont ained
ĠF ed
Ġwin ter
Ġal t
Ġhard ware
Ġproper ly
Ġprot ected
Ġreview ed
Ġfor th
Ġsell ing
gr ade
Ġinst ruction
Ġch osen
4 4
Ġperm it
Ġarrange ments
Ġro les
Ġregular ly
ĠM ake
ĠL at
Ġerr or
Ġad equ
Ġtru ck
ĠK ar
ĠDe v
Ġsuper v
Ġf aith
z y
or ge
Ġappoint ment
Ġre in
ĠT ot
Ġa st
Ġupd ates
ĠId ent
i at
ĠS yd
ĠP S
ash ion
h and
Ġexpl ore
ĠUs ing
D S
z en
Ġbel ong
Ġstruct ures
k y
os es
Ġrec overy
Ġprinc ipal
Ġcont ribute
Ġident ity
fort un
ow nt
Ġv s
il leg
Ġcy cle
hem at
Ġel imin
Ġcompon ent
Ġf aster
Ġb ought
Ġinj uries
ĠLab our
ĠW all
Ġtrans form
Ġro w
Ġbatter y
Ġsec ret
Ġstre am
Ġath let
un ior
ĠR en
Ġt on
ĠAre a
Ġacc ompl
Ġbring ing
ĠF OR
ĠPac ific
Ġmonth ly
Ġapp s
Ġat mosp
Ġabs ence
g ent
E E
ut ch
3 7
Ġcon ver
ath an
Ġlab el
ĠC lick
ĠEm ploy
Ġ urban
Ġrepresent ed
r ating
ĠS EC
5 5
Ġdiffere nces
Ġm ut
c ies
Ġb odies
Ġs now
or ough
Ġtransport ation
Ġexpress ed
ĠPrem ier
ĠCo ast
ic ians
ĠG ames
Ġl osing
anche ster
e y
Ġdis s
Ġbo ost
B ut
Ġsign al
ĠD i
Ġun s
ĠProv ide
Ġmet al
Ġ3 4
Ġill ust
U N
Ġd rug
Ġperman ent
Ġn omin
e per
Ġfor t
Ġacc omp
ĠD ri
Ġha ven
Ġsuccessful ly
Ġlarge ly
Ġh usband
Ġtre ated
b u
Ġprior ity
Ġknow s
Ġmain tained
Ġfam ous
Ġexper iment
ĠL ine
Ġart ist
al a
t op
ĠD ig
ĠKore a
Ġeffic iency
Ġsur g
Ġ199 8
ĠB ell
Ġwin ner
ĠA ction
Ġaud it
ĠProt ection
rehens ive
Ġoblig ations
Ġsk in
Ġprot est
ĠN on
Ġamount s
Ġaccur ate
int end
Ġm ort
Ġattend ance
Ġn ative
Ġsuff ered
Ġprot ocol
in i
ĠTit le
ĠSyd ney
Ġp itch
Ġwe ak
Ġsecond ary
ast e
Ġimprove ments
ĠUS A
ce ler
Ġpay ing
Ġhous es
ĠB oy
Ġopp on
Ġd ress
ri a
ĠNe xt
ĠF ood
ĠV ict
g ers
Ġsubs id
ĠSw ed
ĠF our
Ġdef ault
Ġcap able
Ġres c
Ġrece ipt
Ġdatab ase
Ġe at
Ġcommunic ations
Ġbehavi our
Ġthan ks
end a
Ġexp ensive
Ġant icip
cont ract
at re
Ġinc red
Ġclose ly
uck y
st ate
ĠCont act
Ġdec ade
ĠAr ts
Ġc ro
ĠCol or
ri ers
pr ise
l o
ĠB ob
Ġn orthern
ĠIt al
d o
Ġexc ited
ro vers
ĠP R
Ġbeaut iful
Ġf ear
an es
s he
Ġj urisd
Ġi Ph
a wn
Wh at
Ġn ut
h ors
ĠChrist ian
Ġdo ctor
Ġdefin ition
ĠM anchester
Ġpro hib
Ġconf ig
Ġlim its
Ġed ge
Ġw ire
z il
ĠChrist mas
Ġimmedi ate
Ġpo ly
ĠD ocu
ĠT ri
Ġredu ction
ĠAcc ount
ĠJ ac
P ro
N G
Ġstrateg ic
ĠGl obal
Ġ3 8
Ġca uses
Ġwond er
Ġsurround ing
ĠD own
ist ers
ĠN avy
Ġinstru ment
ĠL in
Ġn urs
Ġrem ote
Ġb order
Ġser ver
Ġentire ly
Ġ3 00
Ġstri ke
g or
Ġexpect ations
end ar
O M
3 6
ic ate
Ġeven ing
n ight
ĠII I
Ġord ered
Ġ4 8
Ġdefin itely
Ġdet ect
Ġaccess ible
enn is
Ġdep ending
Ġreg ions
3 8
3 4
Ġ illeg
Ġsp eech
Ġv essel
re al
st ream
ĠBu ilding
Ġg ather
Ġha z
Ġemploy er
k et
ĠBre xit
Ġsc ope
ww w
ud d
Ġorganis ations
A A
Ġeng agement
r ants
ĠCol umb
Ġregul atory
Ġadult s
Ġhundred s
Ġenh ance
Ġm il
ĠU t
Ġpe ace
Ġem p
Ġle aves
Ġtrans actions
ot ed
Ġ197 0
cl ass
Ġprim arily
Ġtest ed
ĠS up
ĠF inal
Ġsubm ission
Ġclos er
Ġpar am
and a
ri end
ĠC ross
ĠPro duct
Ġcre ative
Ã Ń
-- --
ĠH ave
R S
Ġlink s
ĠPerson al
Ġsu it
Ġlink ed
Ġposs ibility
Ġprofess or
ĠP M
Ġtax es
Ġmiss ed
Ġc aught
Ġrecord ing
Ġperm ission
er ies
Ġsc oring
Ġvide os
Ġliqu id
Ġens uring
if orm
Ġpass ing
ĠO k
Ġfavor ite
E A
Ġex ec
Ġa part
ĠFoot ball
rap y
Ġpropos als
Ġz ero
Ġconc er
ĠTh rough
Ġoper ated
ĠF air
Ġsit uations
ĠC redit
Ġsh op
Ġmot iv
Ġwork sh
ĠN ov
ĠN umber
Ġreview s
Ġ7 5
ĠMex ico
Th at
Ġautom atically
Ġencoura ged
b ury
ot hes
i as
k es
Ġm arg
Ġpen alty
Ġj ourney
Ġs and
ĠW ild
Ġst ret
em ed
ĠW omen
ure au
Ġu pper
Ġaff ili
Ġhe ight
r un
3 2
Ġf illed
Ġart ists
og ue
ĠMich igan
Ġ199 7
ĠSt art
ĠL ight
Ġvot ing
Ġpro port
ĠF ox
Ġs outhern
Ġtra il
Ġdeg rees
ut ers
isc al
Ġra nd
ing ly
ĠP en
Ġaware ness
ĠSer ies
is ition
Ġc ere
ac her
ĠM S
ur d
Ġpl astic
Ġopt im
Ġinvol ving
Ġv ary
Ġdef ensive
Ġsumm ary
ĠJes us
Ġfif th
Ġex cess
ĠAs ia
Ġca ption
ĠMe eting
Ġemploy ed
Ġexpl an
ĠV ice
Ġsh o
ĠM aster
Ġcop ies
Ġhot el
Ġwe alth
L C
Ġed itor
Ġcontract or
Ġqual ified
Ġ3 7
ĠK im
Ġrel ative
Ġam azing
ĠC all
Ġd ynam
ĠC ath
or al
ĠSe lect
n oon
u able
Ġtop ic
Ġeng aged
Ġinj ured
Ġfrequ ency
et ary
ĠAmeric ans
Ġbro ken
Ġsat ell
Ġconsult ation
Ġsh ift
ĠIt aly
Ġbeg ins
Ġv en
Ġfav our
ĠMe an
I F
Ġfr anch
Ġvisit ors
Ġb att
Ġlead s
Ġfell ow
ĠIn it
ĠM ajor
Ġshoot ing
Ġperm itted
Ġreg ulation
Ġfac ing
coh ol
] .
ĠBra zil
are n
Ġlet ters
Ġtrans action
Ġs ought
Ġseem ed
Ġen em
Ġs essions
Ġrand om
Ġenforce ment
ĠG P
ĠOh io
Ġn om
Ġvers ions
ĠA venue
Ġ18 9
Ġelect ions
Ġdep th
Ġha ir
Ġp ed
Ġsto pped
ĠCorpor ation
Ġpup ils
ĠThere fore
Ġcollabor ation
end or
Ġprof it
w ord
Ġend s
Ġobserv ed
Ġult imately
Ġf old
Ġint ent
ĠG ra
Ġph il
Ġpict ures
ĠThom as
rodu ction
bur gh
ĠP arent
ed y
Ġf ly
Ġclub s
Ġhold s
ĠA N
Ġk m
Ġsu c
Ġde ploy
r or
ig en
Ġappl ies
al se
ĠScott ish
Ġcarry ing
os is
Ġh yp
Ġattack s
ĠProfess or
Ġcont ribution
Ġpract ical
Ġcompens ation
C P
Ġinstall ation
Ġwithd raw
ĠS uch
6 4
ĠH or
ĠA ri
Ġwe ar
e en
Ġup coming
Ġimpact s
Ġcontinu ing
Ġdism iss
Ġsym bol
ors hip
ĠK enn
Ġg rew
Ġtell s
Ġp aint
F P
Ġsa v
ind ing
ĠJ on
ĠRe al
Ġvirt ual
Ġtr ig
Ġwide ly
Ġaddress ed
p erson
on ed
ĠW ay
Ġassist ant
Ġres idential
% .
ole c
Ġown ership
Ġconst it
Ġdis pos
A G
Ġexp osure
7 7
Ġk ing
t r
Ġdang erous
Ġcontrol s
ĠF ar
S h
Ġdoub t
ct ors
Ġdeb ate
gu ard
Ġwh atever
bour ne
x y
Ġperform ing
f all
Ġhtt p
ĠC am
ans as
ĠT our
ĠC rit
Ġk ill
Ġful f
ĠPlan ning
Ġconf idential
Ġposs ibly
Ġsubsequ ent
ĠS U
f e
Ġsh ock
ĠPri v
Ġhand le
ĠO nt
ĠKing dom
as er
Ġdecl ared
Ġplan e
Ġd ial
ĠGu id
Ġcateg ories
l im
Ġauthor ized
ĠN O
Ġsuc ceed
ĠQue ens
ark s
Ġplay off
as y
Ġroad s
Ġshe et
Ġbelie f
Ġpublic ation
ĠS and
Ġsch olars
Ġrepe ated
Ġcr ash
ĠC op
Ġsur ve
ain ing
Ġannounce ment
b an
Ġhum ans
ar p
ru ption
ĠPro cess
g s
Ġr ural
Ġfund ed
Ġro of
ĠT ax
ĠCommission er
Ġfore cast
rou d
Ġhistor ical
Ġsong s
Ġtrans p
Ġfl o
Ġsh ips
Ġth r
Ġland sc
or a
Ġspl it
T R
Ġtransfer red
ĠPh ys
Ġprogram ming
Ġl it
ĠUn it
Ġcont rovers
ĠGu ard
Ġgener ated
ĠA L
ĠNAS A
Ġf ru
ĠL ibrary
Ġexcell ent
ĠA wards
ĠSe a
ad y
ĠP ass
Ġfight ing
we ight
Ġstud io
Ġhyd ro
ĠC ivil
ĠPri or
as ure
Ġpr in
Ġsuppl ies
Ġnucle ar
Ġcon ven
Ġmanufact uring
Ġb ench
Ġ199 6
os ite
ĠK ent
O P
Ġgovern ments
Ġsk ill
ĠMark et
Ġexper im
Ġ >
Ġprepar ation
r ance
Ġoper ational
4 8
S W
Ġmark ed
Ġsub section
Ġdis abilities
Ġso il
ĠStand ards
F or
Ġtem porary
Ġcontribut ions
ĠPhot o
ĠIr ish
Ġsu itable
ĠiPh one
Ġs oc
ĠO R
c ure
ĠN av
crib ed
Ġpro of
Ġassoci ation
ĠAdminist ration
Ġvolunte ers
Ġgu y
Ġbas ket
Ġcoun sel
u ction
Ġrecogn ition
Ġplatform s
Ġimpro ving
Ġtarg ets
ĠItal ian
ĠE mer
Ġact ing
oss ible
he ast
Ġrespect ively
Ġr ide
Ġrecogn ized
ĠG ary
Ġhab it
Ġreplace ment
Ġrespons es
B I
r an
Ġl iability
Ġcert ificate
Ġcont rast
wh at
Ġpow ers
f ree
ĠProfess ional
Ġt ight
Ġr id
Ġde leg
Ġpub lish
Ġmanag ing
Ġbig ger
Ġassign ment
ĠMod el
ĠAn al
Ġve get
Ġneighbor hood
re ll
ĠSp ain
l ong
Ġnew ly
ĠS outhern
ap ed
v als
Ġoff ices
Ġpr ime
ĠSm ith
ust er
Ġg ender
Ġfe els
ĠSup reme
ĠO l
Ġmin ing
Ġrepresent atives
Ġmain ly
Ġent ertain
pl ate
v a
sp ec
a it
Ġafter noon
ak ed
Ġcontroll ed
Ġear n
Ġd im
C l
Ġ199 5
Ġsett ings
Ġf irms
3 1
Ġsign ing
Ġcolle agues
Ġcur riculum
Ġopp osition
ul s
o ch
ĠSt ation
ĠH en
ĠH y
ell ed
Ġdistribut ed
ĠRes ources
Ġam ended
ul f
Ġlot s
c ar
Ġoffic ially
Ġe lev
Ġtru ly
ĠRep resent
erv ative
Ġgrad uate
Ġb urn
Ã ³
ĠL t
os ystem
Ġk il
Ġa wards
Ġs ister
Ġwel come
ĠS et
ff ee
Ġfil ms
gor ith
Ġcan cer
Ġadm itted
ĠR ights
Ġv an
Ġmess ages
Ġ6 5
ĠD ub
Ġart icles
Ġl atter
Ġret urning
g ency
Ġwatch ing
ĠSp ring
ĠRequ ire
Ġrelig ious
Ġair port
ĠH and
Ġpers pective
Ġconstruct ed
Ġpar liament
U L
ĠR os
ex p
Ġmed ium
Ġc as
Ġreturn s
Ġf urn
Ġsustain able
ĠH ou
ĠD un
ĠRad io
ĠK en
Ġfl at
ĠC irc
Ġb itcoin
ĠL ook
an i
Ġexp end
ĠAs sembly
N o
Ġturn s
Ġspe aking
ĠG all
Ġcur rency
Ġparticip ating
Ġvot es
ĠCour se
Ġr ating
olog ist
Ġsett lement
ĠGeorg ia
ur ric
Ġsp aces
aw a
Ġste el
R e
W hen
ĠP ak
le ts
Ġpro ve
Ġcharacter istics
ĠP ack
Ġintegr ated
ĠLou is
et ers
um in
c an
Ġprofession als
Ġca using
com p
Ġde emed
Ġtr uth
u ing
c ious
Ġinv ited
s hip
Ã ¼
ĠV an
k ing
A nd
Ġto ugh
ĠJ osh
Ġcomp rehensive
st one
Ġcons ists
ĠEnvironment al
Ġb reat
fortun ately
Ġwrit er
app ing
Ġdiscuss ions
Ġincreasing ly
ag on
ĠPro ced
Ġre ar
Ġte ch
m m
he red
Ġp itc
ric s
Ġpasseng ers
Ġwar ning
ĠBro ad
ĠTh ough
Ġre action
Ġsp oke
Ġsupp osed
Ġpursu ant
ĠCo ordin
Ġsim pl
M M
Ġp ra
Ġmill ions
Ġent ering
Ġtit les
Ġs we
Ġres ident
Ġrestaur ant
ĠR and
Ġr ich
Ġstand s
ĠSche dule
ĠS her
ĠPl ace
ĠK now
6 6
Ġweap ons
Ġiniti ative
Ġacc used
Ġshe l
Ġse ats
l ook
ĠD C
erm an
ĠM ic
Ġwor st
Ġtalk s
Ġresult ed
Ġargu ment
Ġacknow led
Ġac celer
Ġconsum ption
Ġground s
Ġprof ile
ak s
ĠCons ult
Ġcontain ing
Ġocc urs
Ġfac ed
Ġconvers ation
ĠIr an
in ations
Ġch ampion
Ġt rib
in ity
ĠBl ock
3 9
Ġass et
ĠO S
Ġnorm ally
ĠAd am
ĠAl bert
at o
A B
Ġstake holders
Ġthem e
Ġchampions hip
Ġl in
4 9
n et
Ġhas n
Ġcompl aints
Ġag ents
ĠReg ional
Ġ Ã
ĠG en
Ġperiod s
ĠPerform ance
Ġh unt
S p
Ġnewsp aper
ĠInd epend
ĠL y
Ġaud io
Ġill ness
Ġre act
ĠL ow
Ġab use
on ym
Ġr ing
Ġdr am
Ġh all
it als
Ġcl ause
Ġh ack
os oph
o om
Ġg iant
Ġimm ig
Ġpro te
ish op
Ġgener ate
AT E
Ġwar rant
Ġansw ers
w an
Ġyoung er
Ġexcept ion
ad ow
Ġd ownt
ann ed
ac c
ĠWilliam s
Ġoff ensive
% )
Ġwhe el
4 7
y e
end ix
b ut
Ġrep air
Ġcompet e
ĠM ult
ir ation
ĠA rab
Ġf ashion
ĠWh ich
Ġbro ke
Ġobject ive
Ġf ant
ĠL iver
Ġst ored
Ġsym pt
Ġinvol ves
Ġloss es
Ġed ition
ob e
Ġtra ined
Ġn one
ly n
Ġretire ment
Ġwalk ing
Ã ¶
Ġcan cell
Ġhon or
Ġcomp r
Ġfrequ ently
ry st
Ġdes k
Ġestim ates
at i
Ġdist inct
Ġroom s
c ling
ĠV ill
Ġ196 0
ot ic
ol ved
ĠAdd itional
ĠMid dle
ĠDis ney
l am
r as
Ġgreat est
Ġd in
Ġmag azine
Ġhop es
st e
m aking
T H
ĠC C
if ts
Ġab and
ret ion
Ġst ages
Ġmin im
Ġinnov ation
Ġs itting
ĠC ore
r m
Ġexc iting
Ġ4 9
Ġmeas ured
Ġtrack s
Ġgirl s
Ġintrodu ction
prof it
ol it
oth y
Ġis ol
Ġsurg ery
Ġstre ets
Ġg ap
ic ious
as hed
b ec
eral d
Ġext ensive
Ġworld wide
Ġdec line
ĠReg ist
Ġmov es
ĠOr ig
ad el
Ġelect ron
ĠGovern or
ĠOnt ario
Ġwor se
Ġsem ester
Ġbr ight
Ġattempt s
Ġm al
ĠAnt on
is ms
Ġb rows
Ġt ab
ĠRe f
ĠL ater
Ġsc ript
ĠT ype
the re
ĠB attle
Ġpro min
ĠMel bourne
y ard
L e
t a
ĠI C
Ġapplic ants
Ġadvert ising
ach ment
d den
Ġfra ud
Ġcal endar
Ġpromot ion
Ġ iron
y th
Ġredu cing
n am
Ġaut hors
Ġsound s
et ime
Ġprov ince
et her
Ġal gorith
elf are
Ġtemper atures
ĠE val
Ġfin ance
w orth
l ers
Ġaim s
ĠL ink
Ġ ing
Ġret ired
en a
Ġext end
ĠTre as
Ġf at
Ġcr ime
Ġ15 0
Ġserv es
Ġstud ied
Ġest imate
Ġm useum
ĠPro per
is er
ĠCont in
ĠTh us
Ġvot ers
Ġweek ly
r ich
T ube
Ġval uable
ĠP oint
b al
ir ty
ĠSen ior
Ġint elligence
ĠC S
we alth
Ġb low
Ġrail way
Ġw estern
Ġw ave
Ġbr anch
ĠAn ne
Ġpattern s
ĠMr s
a o
O W
ĠP L
7 8
ĠFore st
Ġv ice
Ġp al
g n
ĠMean while
ĠN Y
ĠK ong
Ġtop ics
Ġsal ary
Ġchair man
i ated
Ġconc rete
Ġjust ice
Ġcommunic ate
Ġr ub
Ġsubstant ial
Ġcont em
Ġsubject s
Ġarrest ed
Ġhappen ing
U C
ĠVict or
Ġrel ief
Ġth ick
Ġoper ator
Ġind ex
Ġfound ation
Ġ5 5
Ġnar row
Ġinc ent
app ro
os c
Ġal cohol
Ġsu dden
Ġm ixed
Ġb ike
Ġt aught
ĠDes cribe
pl oad
Ġg ained
Ġatmosp here
Ġ3 9
I s
Ġc art
Ġb ag
f riend
d oor
Ġoccas ion
Ġd uration
ut ed
w ar
ĠT es
Ġact s
ĠAnn ual
ĠPr im
ax y
Ġm erg
ĠPart ners
ĠHou ston
t hen
Ġsc r
Ġtyp ical
Ġbre ach
Ġst one
ĠB al
ĠB rand
Ġp apers
ĠR un
ĠF estival
Ġavail ability
Ġcomplet ing
Ġrec over
ĠW atch
og rap
Ġexpand ed
qu arters
Ġcapt ure
19 9
ĠT ake
Ġr ising
Ġpl enty
il st
Ġsatis fact
Ġmanag ers
ĠC R
Ġ icon
ĠS C
ĠB ridge
Ġpass es
ost er
ĠU k
Ġanal yst
ec ess
ĠD ue
ĠH ong
Ġwall s
ĠB ul
Ġ199 4
Ġhistor ic
Ġar my
Ġbr ings
ĠTe le
Ġec osystem
ĠS n
A l
Ġunder st
Ġdestroy ed
Ġbe er
Ġm it
Ġins ert
ar ry
Ġsu spect
Ġconcer ning
M ENT
ĠPract ice
ĠAdd itionally
ant ly
6 8
Ġappro aches
E x
Ġco vers
c les
Ġcryptocur rency
he nt
ĠW r
Ġquarter back
Ġin spect
ĠF ull
ĠLiver pool
Ġsurpr ise
ĠL ittle
ĠFin ance
Ġdead line
Ġbuy ing
Ġar ms
ĠConn ect
Ġpick ed
ĠSe attle
Ġmark s
Ġmach ines
ĠQue en
Ġs amples
ĠPak istan
Ġme ets
Ġdevelop er
Ġm olec
Ġdisapp oint
ĠSub m
Ġf ol
Ġpl ate
el a
Ġb aby
Ġf alse
Ġmen u
Ġpr ison
Ġexpl ains
pt on
be ing
Ġf reedom
ick s
ĠM ater
ĠN ations
Ġinter face
um es
Ġte ach
rom e
ĠColor ado
ĠV iew
Ġun known
Ġcomm it
Ġt urning
Ġspokes man
ann els
ĠYou Tube
fol io
ĠD am
ĠM ethod
ĠC ro
D C
ins on
Ġcontribut ed
Ġfranch ise
yl van
f low
ĠBr ad
Ġorgan ized
Ġtele phone
ĠEngine ering
ĠO N
Ġw ins
ĠE vent
Ġwor ry
ĠJohn son
3 00
Ġrat io
Ġwat ers
Ġatt orney
0 1
Ġm ale
g ame
Ġsubsequ ently
ĠFin ally
ĠD ie
Ġ era
ĠV e
ĠDo es
Ġconcept s
ĠJer sey
Ġvot ed
Ġwork er
Ġinvolve ment
Ġkn ock
ĠCol l
ĠResp ons
b ra
Ġp roud
ug by
Ġint ention
ide o
ph y
Ġjud gment
Ġcapt ured
Ġc able
ent h
Ġy es
Ġf iscal
Ġilleg al
ĠL og
itution al
iz z
el lect
Ġfew er
in ch
f oot
ĠB all
Ġst able
ast ers
Ġcl osing
Ġcapt ain
ĠR ose
Ġvis ible
ĠJ ones
pre ne
ic ing
Ġc ra
Ġscore s
ĠA I
ĠC F
ĠS ever
Ġemot ional
Ġcompar ison
Ġd ream
ĠF ord
ĠP rom
Ġcl imb
Ġref used
Ġanc ient
ric ts
Ġbo at
c ol
ĠO pt
ĠS ource
Ġv ast
Ġapply ing
ĠPr ice
re prene
ĠM en
Ġagree ments
ord ers
Ġpet ition
cure ment
Ġun us
Ġfact s
Ġdefe at
ĠCh ange
Ġrough ly
Ġimp ossible
as p
Ġblock s
ĠT y
ĠHist or
ĠI V
Ġdivid ed
abin et
ES S
m akers
Ġo cean
Ġag ed
Ġph ones
u ating
ĠE astern
Ġconc lusion
Ġcap abilities
Ġ4 2
Ġ( $
Ġprodu cing
ĠP ur
Ġde ck
ĠC N
P R
Ġg all
Ġdescrib es
Ġover se
ut ation
ĠBro ok
Ġ199 3
Ġpur s
Ġlist en
Ġsem i
Ġexp osed
ĠL ic
Ġlay er
ĠC ond
Ġne ut
Ġvulner able
ern and
Ġsur f
Ġatt ending
Ġhol iday
h us
Ġdra wn
ap ore
ĠR ules
M y
Ġdisc retion
ĠC apt
ĠOb ject
Ġ199 2
ĠB ased
Ġdisc over
ch arge
Ġann ually
Ġre ward
6 7
nes ota
Ġb on
ĠR est
ĠN BA
Ġoff ense
Ġterrit ory
Ġeval uate
u ct
Ġden ied
Ġco aches
Ġcommon ly
ĠCap ital
ang er
Ġsol ve
ĠA p
Ġstrong ly
ĠT en
over ty
Ġar ts
Ġconf ident
Ġs ight
ĠS S
Ġt ail
ĠUp on
Ġexam ination
Ġun iform
Ġex port
Ġdesign s
Ġnot ified
Ġthough ts
Ġe gg
Ġy ield
ĠC ult
Ġd ie
ĠG i
Ġmaintain ing
Ġut ility
ĠB ase
Ġdo ors
Ġ4 00
Ġtick et
Ġregard less
rit ing
d ed
aint iff
Ġpul led
ĠIm pro
A r
Ġsm ooth
ĠSk y
t w
id den
ili pp
oun ter
ĠQueens land
t ra
Ġcomb at
Ġdec ent
ĠCommon wealth
Ġcert ification
Ġelect rical
Ġinsp ection
Ġd iverse
ĠN ick
ĠAs h
Ġdecl ined
ĠA st
m ates
P C
Ġhon est
Ġbe ar
Ġtell ing
Ġmount ain
8 5
reg on
ĠSumm ary
Ġcomfort able
Ġ4 4
ylvan ia
ĠG M
Ġtechn ique
ĠMin nesota
Ġ ï
ĠSt adium
Ġadequ ate
ester day
U n
ĠO wn
hold er
Ĥ ¬
ĠE S
Ġindic ates
Ġconsequ ences
b o
V ID
A pp
ĠDisc uss
Ġnecess arily
Ġs ick
ĠE th
Ġmunicip al
ĠU C
erv ed
Ġm ine
ĠD NA
Ġ18 5
Ġmat hemat
ĠQual ity
Ġremov al
Ġtra ins
Ġf lying
k in
v y
ĠH ous
Ġexpl os
op her
igen ous
ĠA z
Ġs ending
Ġm yst
Ġbasket ball
quir y
ĠCl in
am ber
c ons
angu age
ĠWork ing
ĠKe ep
Ġrestrict ions
ver ning
Ġaccept able
Ġle ct
Ġnot ify
ĠDe an
Ġprem ises
Ġhand ling
on ic
Ġconnect ions
ĠN HS
ĠC amb
Ġcut s
b ar
ĠSystem s
rick et
Ġsw im
Ġphot ograph
Ġdisc ount
Ġjoin ing
0 5
Ġconc luded
Ġc raft
it ar
ĠN HL
ĠSt ock
Ġre aching
am ental
Ġacqu isition
Ġhor se
itc hen
ĠP ub
ĠMay or
Ġdisp ute
D F
Ġno ise
Ġrank ed
Ġexpert ise
ĠF C
ur a
Ġheav ily
Ġg ift
ĠAff airs
Ġex ists
own ed
ĠSchool s
Ġk id
n ic
Ġpost s
Ġfl ag
Ġend ing
Ġo dd
w ing
. ]
Ġus ual
Ġhe ro
Ġcalcul ated
ĠE X
ĠDan iel
Ġproceed ings
ĠV A
Ġjurisd iction
N ew
Ġs yn
ign ment
Ġdeterm ination
" ).
ĠSing apore
Ġm ob
Ġadv ent
ĠN orm
Ġst adium
Ġfarm ers
Ġassess ed
Ġreported ly
ell er
a ul
ĠDig ital
ĠMc C
ĠCom mer
ad or
Ġsympt oms
ap es
ĠBe ach
on z
Ġto m
Ġus age
Ġm ir
Ġg rown
P l
Ġpolit ics
ĠLt d
ĠE ll
Ġp hen
Ġd iversity
Ġ6 4
Ġfacilit ate
ĠK h
Ġlangu ages
Ġcl ock
ĠW H
ĠDes cription
er ate
Ġdog s
Ġdiscl osure
Ġexplan ation
Ġw ider
Ġachieve ment
Ġchalleng ing
Ġtick ets
ig ate
Ġcomput ers
d a
ound ed
U D
Ġrespond ed
ĠChair man
ĠR h
Ġprov ed
Ġdis pl
Ġco ffee
g age
ĠComp et
ĠAir port
Ġassess ments
Ġch annels
alle l
Ġunc ertain
ĠAri z
ĠEm ail
Ġf ounder
Ġpasseng er
Ġrepresent ing
ĠInst agram
itt ees
Ġassign ments
ĠO x
Ġadd s
ĠAnt h
Ġexist ence
ob by
Ġro ster
ĠTot al
ĠB ox
Ġmechan ism
ĠEm p
Ġtransm ission
h ow
E F
Ġmod ified
8 8
O D
j ust
ĠDirect ors
! !
Ġcol on
Ġvis ited
S o
e er
Ġinter act
Ġarchitect ure
ĠCare er
ĠOn line
ĠPenn s
ack s
ĠSh ort
Ġprodu cer
ĠE p
ĠRec ords
ir k
Ġrequ iring
Ġtarget ed
mon th
Ġfall ing
du ction
Ġform ation
Ġ5 2
ĠTechn ical
ĠStud y
ĠRequire ments
ir al
Ġdeal ing
Ġvolunte er
ĠO regon
l ights
Ġout standing
Ġun cle
Ġsav ings
b ro
ĠCom pl
A n
re ens
Ġgu ess
Ġlaw su
p ay
m ar
i est
Ġp ace
Ġla id
Ġrout ine
Ġcon vent
Ġa er
ph ia
d ri
Ġcho ices
ĠCath olic
Ġunderst ood
Ġinsp ired
Ġident ification
ĠW alk
ar ation
ĠL ove
Ġag gress
c ers
ro it
Ġdri ven
ĠAm ong
Ġe ld
________ ________
ĠV R
Ġcour ts
Ġc up
" ),
ce ived
at ers
ĠS anta
a fter
Ġfr ust
Ġme re
Ġd iam
ĠJeff rey
Ġopp osed
ĠCons ider
Ġliter ature
Ġl ie
Ġsp in
ĠP ot
Ġcrypt o
um s
ĠEn s
ian a
ĠSo ft
ĠStud ies
Ġmar riage
ĠKore an
Ġopp osite
Ġdraw ing
Ġf re
ĠR ight
ĠM ur
Ġt ables
Ġlic ence
Ġres erve
Ġcover ing
ĠR oss
Ġhead s
Ġeas tern
adel phia
Ġpoint ed
Ġsequ ence
d es
Ġcons ervation
ott ed
T ER
Ġl ists
Ġinter vention
Ġoutl ined
IT Y
ĠPenns ylvania
Ġlow est
Ġ vert
Ġdes ire
Ġsent ence
ĠThank s
Ġimpress ive
ĠL ive
Ġsy nt
Ġg aming
Ġsens itive
ĠR ick
Ġfind s
Ġinvest ments
ock et
Ġ199 1
Ġlight s
Ġinnov ative
T E
Ġpass ion
re p
Ġher self
ĠJ ames
Ġdef ence
ur ities
Ġdisplay ed
Ġwe aring
u an
ut er
ĠP A
ĠSt ill
Ġp ump
Ġra cing
Ġide al
Ġaccount ing
Ġw et
il a
Ġpub l
ĠD er
Ġinc ur
ri x
G B
P P
Ġco aching
ĠEconom ic
Ġiniti atives
Ġm m
Ġsec retary
A meric
Ġrepresent ation
ĠW ars
Ġv ital
ol id
ĠSever al
ino is
ĠP resent
Ġcut ting
ĠP age
Ġsatell ite
ou red
ĠP o
Ġbase ball
ĠKenn eth
gy pt
6 9
ĠE ffect
ellect ual
ĠJe an
Ġstat istics
ĠAriz ona
ĠP H
Ġreject ed
Ġprefer red
Ġundert aken
Ġviol ation
Ġappear ances
h av
ĠC reek
ang ers
all as
Ġfair ly
ĠAc ademic
V E
ut ory
4 2
Ġv irus
Ġst rict
ol ar
ĠS ams
Ġor ient
Ġpublic ly
Ġlo ans
ear ing
Ġhelp ful
M C
et ts
ask a
Ġgr ants
ĠPh ilipp
Ġstru ck
Ġsusp ended
ĠPhil adelphia
ĠT el
il ly
ĠJose ph
Ġch ose
Ġfac es
ĠH ay
Ġ198 9
ok ing
het ic
Ġemploy ers
z ing
Ġro y
Ġcor on
Ġr ig
Ġmus ical
al o
Ġc od
Ġb at
or gan
ĠF re
Ġlov ed
Ġposs ession
Ġex ch
s pe
Ġb orrow
Ġpre ced
ĠSc ient
Ġcred its
Ġev olution
Ġa x
rib utes
% ,
ĠDocu ment
Ġunlike ly
Ġpl ug
Ġrem ind
Ġcontinu ous
Ġaddress es
ĠH ard
Ġrec re
Ġinc hes
Ġal ter
Ġexpl o
arg o
Ġexcl usive
Ġtouch down
Ġabsolute ly
Ġprepar ing
Ġdisc overy
p at
er as
oc ation
Ġintegr ation
um er
ĠGu ide
Ġreserv es
ĠM ah
ĠTes la
st ract
7 9
g ener
ĠC ase
Ġcon secut
ĠU r
ĠColumb ia
ĠH art
ra ction
Ġdemonst rated
ĠK el
Ġte en
Ġclass ic
Ġprinc iple
u zz
ĠY et
ĠF arm
Ġarg ued
ren cies
Ġst ood
ac ent
ord ination
ĠC ook
c hers
h our
ĠG reek
ĠL i
ĠConst ruction
Ġp od
ĠB udget
ĠT ony
Ġproport ion
ĠCon c
Ġsh ots
ĠAssist ant
ĠB owl
M E
ad s
Ġrefere nces
ĠT ok
os a
Ġprem ium
Ġcheck s
Ġw age
Ġt all
ĠB ang
ĠD aily
ĠA BC
Ġm ur
ĠQuest ion
4 6
Ġcare fully
osp itals
ĠAg ain
ĠInt erest
n ew
Ġent ities
Ġ( )
ĠF A
Ġhealth care
ĠF act
ĠH a
ĠLe on
Ġdirect ors
Ġover s
Ġb oss
Ġfact ory
Ġcru cial
Ġa ver
ĠB ureau
en cing
ĠIll inois
Ġguarant ee
rim ination
Ġrespect ive
Ġ19 50
end ers
ĠDemocr atic
Ġsusp ension
Ġadopt ion
ĠR isk
ict ed
Ġne ither
ĠTim othy
Ġcirc uit
Ġman ual
ĠAr m
Ġvac c
y ers
Ġ {
Ġsho pping
Ġw ww
Ġde als
Ġhop ing
Ġe ating
Ġr uling
is a
ĠOrgan ization
Ġw ing
Ġy ellow
vis ory
Ġstret ch
Ġpoll ution
ing ham
Ġd ance
ĠA G
te en
Ġm ic
Ġshort ly
ĠDet roit
ĠMart in
Ġt weet
Ġem pt
O ur
Ġhost ed
Ġrec y
Ġgovern or
Ġplace ment
ĠH o
ot es
Ġsign ature
Ġdam aged
Ġserious ly
Ġwind ows
Ġl iber
Ġany where
ĠMar c
Ġw ed
Ġrapid ly
Ġaim ed
ac he
ĠReg ulations
Ġra ising
Ġresist ance
Ġimplement ing
Ġc rack
ĠState ment
Ġvari able
ĠP op
Ġt act
ĠSams ung
ret t
Ġlandsc ape
Ġres idence
ĠE gypt
Ġtow er
Ġqu iet
Ġboy s
7 6
Ġagricult ural
h ost
lement ary
ĠRepublic an
ĠS port
ĠAdd ress
Ġent rance
og ether
ult s
Ġadv ised
Ġgr id
Ġact or
in er
H z
av a
us ions
Ġscen ario
Ġfund amental
ĠF le
Ġse ed
Ġattempt ed
Ġrout es
Ġexpress ion
ĠM A
h ire
Ġvictim s
se ment
ĠSm all
4 1
Ġtw enty
ĠInd ividual
Ġindust ries
ĠAs ian
ĠT urn
Ġr um
Ġm o
Ġfor g
ĠA th
ĠO ak
ĠSh ould
Ġag enda
Ġidentify ing
Ġtrou ble
ec k
Ġcre ates
iam i
Ġu pload
Ġre ly
ĠV i
Ġst y
ĠN ight
ĠL uc
Ġt ied
Ġpromot ed
Ġland s
ĠApp endix
Ġsex ual
Ġdownt own
B M
ph ones
ĠH aving
ĠW ord
ĠJu an
Ġs ac
ĠGr ade
Ġp ure
ĠD utch
aw ay
Ġmer ch
ot o
ĠEmer gency
Ġabs or
Ġsk y
ĠAnal ysis
] ,
Ġâ Ĥ¬
en ant
ĠR ub
Ġf ab
sen al
ĠHol ly
Ġcert ified
ĠU lt
ĠJ r
ĠSum mer
Ġex it
Ġafford able
ab et
r ons
Ġdis aster
AR T
Ġh ired
ĠJac ob
H A
Ġexp ense
Ġtrack ing
Ġvis its
Ġdo ctors
Ġf ault
ir a
Ġunivers ities
ĠR onald
Ġdefe ated
Ġp overty
ĠT ro
Ġtrans it
Ġtro ops
Ġh its
Ġwebs ites
ĠCh o
ect or
Ġref ers
ue z
Ġapparent ly
ĠCustom er
ĠUp date
Ġconsecut ive
Ġfor get
Ġobvious ly
Ġgr ass
Ġhousehold s
Ġf ired
Ġnot ification
inc ial
bre ak
Ġeffect iveness
A ll
Ġsil ver
ĠCommun ications
r ison
ub s
e lect
ĠIn v
grad uate
Ġincorpor ated
Ġrecogn ize
S E
ist ent
ach us
ĠMill er
ĠLeg isl
S c
R I
ĠD allas
Ġt ie
in em
f ast
Ġass ume
st ar
ĠO tt
m ony
in als
EM ENT
ĠC at
Ġro se
hab ilit
Ġf estival
Ġt or
Ġerr ors
ĠS ant
b r
Ġnegoti ations
Ġmod ule
Ġact ively
Ġun p
Ġast ron
Ġkind s
Ġhor iz
se ct
ĠS ix
olog ists
Ġle ase
ĠI ce
Ġup grade
ĠS em
ĠA ge
Ġsold iers
ĠO cean
ĠEx change
ĠF ind
P D
ĠM un
Ġpat ent
ĠFil m
Ġm outh
ik es
Ġspecial ist
ol is
ĠS at
Ġparticip ant
Ġdef ine
Ġfeat uring
Ġse es
ĠYou th
Ġent hus
ĠIns urance
Ġphil osoph
D I
Ġinc l
ĠF all
Ġrecommend ation
Ġestablish ment
Ġvis iting
Ġlicens ed
Ġm aps
ĠM cc
Ġt ut
ĠB ru
Ġrel iable
ĠDav is
s m
Ġequ ity
Ġdom ain
X X
Ġst ring
Ġaccur acy
Ġbus y
Ġslow ly
ĠAnd rew
az z
ĠJust in
Ġchar ity
ĠStan ley
Q U
Ġhaz ard
Ġri val
ĠConst itution
Ġenjoy ed
Ġpract ition
O n
Ġoper ators
Ġneigh b
Ġintrodu ce
ip e
Ġwar ned
Ġhead ing
Ġinstru ments
Ġland ing
Ġw elfare
Ġfriend ly
em an
ĠV eg
Ġsurpr ising
un a
igh th
S C
O s
p et
ĠR s
Ġfl ash
ĠP itt
Ġpromin ent
or ig
ĠGold en
c a
ĠT rib
Ġ4 1
Ġdepart ments
Ġcooper ation
Ġdem ands
Ġp ic
ven ues
Ġless ons
Ġse vent
Ġret ain
ĠFac ulty
Ġl unch
fr ont
achus etts
ad ed
Ġbre aking
ĠM iami
ĠF I
aut hor
Ġarri ve
av irus
Ġs ad
Ġra ces
ĠCh all
Ġpar allel
au g
Ġviol ence
ist ed
ĠMatt hew
ro g
b i
Ġ4 7
Ġrep utation
Ġag rees
ĠOlymp ic
er k
ĠT am
Ġcomp rom
ĠAs k
Ġphen omen
ĠAm end
6 2
Ġarri val
Ġind eed
b rid
c ase
ĠR out
Ġinstruct or
e als
Ġac id
Ġar bit
Ġaut hent
ĠPh one
Ġcol our
ĠS us
ĠDie go
Ġdeath s
Ġeng ines
ĠMed ic
let ed
6 1
ĠB ern
Ġg ro
Ġterm ination
Ġreason ably
Ġh ole
Ġst ead
G A
Ġent reprene
Ġsuff ering
ĠC orn
ast s
ĠAl an
Ġentertain ment
Ġst im
Ġweap on
Ġdist ricts
ĠG iven
Ġsa ved
Ġdoll ar
Ġsome what
ĠDav id
Ġhom eless
4 3
ĠH old
ĠUn ivers
ĠNot ice
pr int
Â °
Ġinterview s
Ġsix th
IS T
Ġp ounds
ĠMass achusetts
Ġport folio
ivers ary
Ġrem ark
Ġfru it
ĠB C
Ġpe er
w ich
Ġinter ior
ĠM ail
Ġprec ise
D R
Ġfall s
Ġsupport ers
oy d
ĠV ideo
6 3
Ġpop ulations
Ġsub sc
ĠAtl antic
Ġb omb
ĠAnton io
alt ies
ĠR og
ra cy
Ġperform ances
Ġelse where
ist ical
Ġdi pl
Ġess entially
Ġmov ies
t ical
Ġpl ot
4 00
it ative
Ġm el
Ġdeterm ining
ĠLin ux
ed ia
Ġpromot ing
or ne
Ġth in
Ġreve al
Ġ1 20
h ar
Ġmin istry
ĠInst ruct
Ġy esterday
ĠD O
Ġpar ish
Ġag greg
Ġinvestig ate
Ġgu est
ĠB ull
Ġinter action
m ont
ĠDon ald
B O
Ġlaw yer
H ow
Ġal arm
Ġtime ly
ĠHous ing
Ġstrong er
ĠRec ord
Ġappro ve
Ġarrange ment
Ġcam eras
ul ating
ĠSc iences
ĠJ ay
Ġl ies
Ġelig ibility
ou ver
Ġpri ze
Ġ18 0
ur se
ĠS av
Ġposs ess
ĠMount ain
comm un
Ġdam ages
ĠSur vey
ĠMot or
u ous
ĠE C
od ge
r ary
ĠC ru
og en
Ġdist ingu
Ġch ances
ann a
Ġh urt
ĠV en
n est
ĠWork s
Ġsp ell
Ġunus ual
iv ities
oy s
Ġd ensity
Ġob st
Ġfunction al
Ġrece ives
Ġ198 7
Ġfle et
Ġenem y
Ġg arden
ĠP sych
Ġse gment
ĠJ ul
ail ed
ha ust
Ġrev ised
ĠGe orge
ĠWh it
Ġprogram mes
ra ce
Ġi OS
Ġto ken
Ġsuperv ision
ĠH unt
con n
Ġn ob
Ġoblig ation
Ġshe ll
ĠIndepend ent
Ġour selves
ĠMich ael
Ġstre aming
Ġnot iced
viron ments
es see
Ġb ow
Ġmom ents
ig er
T o
Ġme at
Ġsett led
Ġacc red
Ġgu ests
uck s
Ġcent ers
ĠB ry
Ġr ush
ĠHigh way
Ġp ushed
ĠR ule
Ġref uge
Ġobserv ations
ĠC a
Ġamend ment
ĠTe ch
ific ial
Ġengine er
ĠAnth ony
az e
Ġparticip ated
Ġt ap
Ġ198 8
t le
s uch
ĠPrinc ipal
ĠInt roduction
ink ing
Ġcomp at
Ġthe ore
Ġmand atory
Ġknow ing
anc ouver
Ġcap ability
ĠSqu are
Ġresc ue
ĠT ask
7 2
ĠK ansas
Ġveter an
k o
Ġbird s
Ġsu gar
ĠC L
Ġoper ates
Ġf oss
ĠH ig
Ġwork force
act er
Ġless on
ĠTra vel
if ier
Ġprom ise
ĠL ind
Ġt iny
Ġgrad es
res hold
Ġfil ing
Ġgovern ance
ac hel
Ġread ers
Ġdevelop ments
Ġaccommod ation
Ġthe rm
ĠTransport ation
ĠPrim ary
Ġt urb
Ġ" "
Ġpres cribed
ĠPol it
u pp
ĠSt ore
Ġindepend ence
ĠT enn
ĠP ers
Ġp ension
c alled
Ġinc lusion
ĠS ar
ĠSte ven
ĠCon vention
Ġas ide
ĠTr ade
he ll
Ġdifficult y
Ġ9 5
xy gen
c ut
Ġcorrespond ing
Ġtack le
Ġ8 5
ian o
ĠChar les
Ġsatisf ied
Ġimag ine
Ġbox es
ĠGr ad
Ġdis abled
ress ed
Ġc ited
it ud
Ġex empt
Ġdep ends
ab ling
Ġdecre ase
l imin
OR E
ĠSim ilar
Ġsurpr ised
i ot
ĠDe ad
itz er
Ġaccompl ish
in ter
esp erson
ĠX box
Ġmanufacturer s
b n
ap se
Ġt ag
Ġw ine
Ġ198 6
ow a
Ġlabor atory
Ġprint ed
Ġmed icine
ĠS a
Ġab ilities
ell a
M an
Ġdynam ic
ĠG onz
Ġun em
leg es
Ġbrows er
Ġb ills
ĠDel hi
Ġcol ors
ĠG il
ĠSEC TION
ĠG ro
an ied
ĠRead ing
ĠRes erve
P M
Ġequ ation
R L
ĠAr senal
ĠV ancouver
Ġsurv ive
Ġtrend s
s ite
St ar
ĠCh annel
ĠBack ground
fl ix
Ġ4 3
ak h
ĠB id
rop ical
ĠH u
Ġassum ed
Ġleg it
Ġhead quarters
Ġg ear
ĠS ite
b ound
Ġun iverse
Ġpriv ile
ĠS H
ĠHaw ai
f ire
Ġneigh bour
ĠL A
Ġwork place
Ġche ap
Ġhead ed
ĠPort ug
Ġ* *
Ġev ac
ĠInt egr
Ġven ue
Ġintegr ity
Ġesc ape
r ange
8 9
ĠO s
Ġconfig uration
ve ment
ĠH as
ĠB a
Ġe ase
he im
ĠFurther more
Ġgu itar
Ġf ishing
ak a
ĠPh ill
Ġs weet
Ġb ath
Ġs alt
ĠRel ated
ĠE SP
Ġdepend ent
ĠR ES
i ro
rag on
ĠM ission
Ġstreng then
Ġan x
Ġvari ables
a ired
ĠE ag
ĠAl tern
ĠRequ est
Ġp m
ĠWith in
ĠJud ge
w hel
Ġdocument ed
r ators
Ġd ies
p age
os m
Ġdrink ing
Ġprior ities
ĠWhe ther
ĠFr ame
ĠW ard
Ġsect ors
Ġfl av
Ġflex ible
Ġdes ired
ĠExpl ain
Ġc ust
Ġ198 4
ĠL ess
o ices
ĠStep hen
Ġperson ally
Ġph r
ĠE V
Ġparam eters
Ġsign als
Ġr uled
il ty
Ġstudy ing
ĠChrist opher
ĠCoordin ator
ĠTh ird
ĠRail way
Ġempt y
ĠAtl anta
ĠRay mond
U ST
Ġcomp are
Ġg ate
ĠM ir
ĠD V
ĠEval uation
ĠD or
Ġkil omet
f und
ĠRec omm
8 00
Ġcon j
Ġh ockey
Ġsc reens
ĠC A
Ġas sembly
ĠO bs
Ġh ospitals
Ġm ile
b a
Ġcontact ed
Ġen vironments
Ġthe rapy
ĠF ive
Ġdis rupt
at hered
Ġsub contract
Ġass ault
og y
Ġdifficult ies
ĠL ew
Ġext ract
R P
th at
Ġbe ach
Ġg al
B l
Ġcar rier
ixt ure
ct ic
Ġreb u
Ġtalk ed
limin ary
ĠFore ign
Ġenroll ed
ĠSe ason
T e
ĠRich ard
Ġad verse
Ġbank ing
Ġmay or
ĠB rian
ĠSt ory
Ġanticip ated
cept ions
on ing
el ve
ĠMar ine
Ġt err
ol ph
Ġres ign
tw itter
ĠBel g
ch o
7 1
Ġresol ve
ĠOx ford
Ġdefend ant
A t
Ġemerg ing
ĠReg ulation
Ġconver ted
Ġ198 5
Ġcat al
Ġcere mony
Ġsp r
Ġbl ank
nov ation
Ġph arm
8 6
vel and
ag ers
ĠW el
Ġpain ting
b les
ĠC ra
r ition
Ġwere n
ur rent
Ġtr ick
Ġrestrict ed
en ess
ot ing
ĠG arc
Ġ2 50
Ġstat utory
ri p
Ġdec or
l ah
d ef
Ġgra b
er ly
Ġnomin ated
Ġth orough
Ġwire less
pl ing
Ġcl othing
i h
if ted
ĠAd m
Ġcomp osed
ĠMon itor
ĠEd ward
Ġsh ipping
ĠMc G
ĠF el
or i
ĠS ony
ard o
Ġbl ind
Ġing red
ĠExp ress
sc ale
Ġinc idents
Ġfil ter
ĠQuest ions
ĠM ach
vious ly
et ies
ĠAg ricult
Ġdeliver ing
W S
ĠD id
Ġun n
Ġtem plate
ĠT reat
Ġlawsu it
Ġmet ers
h igh
ons in
ĠNet flix
Ġsec ured
ĠN ever
âĢ¦ âĢ¦
Ġequ ipped
ĠD ave
Ġincred ible
Ġc odes
Ġnot able
em ic
g ets
Ġb oot
Ġaccept ance
Ġpric ing
t es
isc onsin
ĠC as
ĠWith out
Ġleg end
ok ed
Ġb are
ĠR us
Ġsc an
Ġexec ution
Ġst ating
ĠS on
ĠCount ry
Ġdis ag
ic an
al i
Ġi P
Ġres id
ĠSm art
ĠI ra
5 9
b el
ĠProper ty
ĠJ ob
Ġgun s
Ġlab our
Ġsuppl ied
Ġlik es
habilit ation
Ġfl ights
Ġd ust
ra ine
let on
Ġwh ilst
intend o
7 4
Ġex haust
Ġadj acent
g ov
z ed
so le
ĠAl ab
ĠRe uters
ĠRod rig
ĠB alt
ail able
ĠSwed en
B e
ĠL arry
Ġs ed
Ġn in
ĠUn fortunately
Ġmeasure ment
amp s
Ġcy ber
Ġoverse as
Ġrece iver
Ġlimit ations
Ġfail s
ep ing
y o
Ġreal ize
ĠMc D
Ġo m
Ġtrad ition
k ens
Ġrev olution
ĠProv ider
ĠN athan
Ġpass word
urric ane
Ġal ert
ĠH oly
ĠPl us
Ġs ke
ater al
ros c
Ġto x
Ġcompet ing
ĠF uture
Ġgo verning
Ġm ask
Ġoppon ent
Ġcy cl
Ġdi et
w alk
ĠGreg ory
ĠEs s
ill ance
Ġw aves
Ġprov en
ĠP ict
ot ype
Ġ4 6
Ġfail ing
ĠJ ason
o en
ab il
olit an
d y
w ick
Ġpl aintiff
Ġmur der
ĠN SW
Ġcal c
ĠW isconsin
Ġbas ically
j a
Ġd ual
Ġind irect
Ġk itchen
ĠB and
ĠT ay
Ġreal ized
f rom
7 3
ol t
Ġbar riers
Ġhard er
ĠS ound
Ġj u
Ġj unior
Ġconduct ing
ĠCurrent ly
ĠReg ister
ĠS aud
Ġunder lying
Ġalleg ations
j i
ĠC ow
Ġdirect ions
ou ch
ĠGal axy
m ate
Ġalloc ated
in ction
Ġsmart phone
ĠCapt ain
Ġstrugg le
ĠMet ro
ĠLat in
Ġvent ure
ĠJack son
az a
ĠSil ver
aren cy
Ġpre v
ĠNet her
im ens
Ġang le
ĠChe m
em ption
Ġbre w
Ġsubst ance
ĠB rew
ĠRober t
ic ity
ĠKe vin
Ġqual ifications
Ġn ations
Ġconstant ly
Ġret ained
ĠDri ve
Ġaut onom
Ġlight ing
Ġimp osed
Ġstrugg ling
ict ions
Ġder ived
ĠH al
there um
ĠThe atre
Ġ5 1
ed ing
Americ an
Ġaband oned
ĠS A
Ġqual ify
Ġexpend iture
ĠB ow
Ä ģ
ĠCor ps
Ġh ire
Ġanal ys
part y
v ity
ĠS D
Ġspok esperson
iel der
Ġear nings
Ġdr ama
ĠB ad
Ġst ability
Ġb ull
ĠAlab ama
ĠA k
ult ane
ĠSt ra
Ġl ake
Ġvers us
ĠM obile
w a
Ġhold er
ol as
um ps
Ġmil k
ĠOper ations
Ġsing er
Ġorgan ic
ac hers
Ġm oon
ĠR a
oura ge
Ġworksh op
ter y
ĠG irl
ill o
ĠTod d
ĠL anguage
o ir
Ġview ed
u ates
Ġwalk ed
Ġpl ed
Ġconcent ration
Ġdang er
ĠExper ience
ounc ill
Ġfocus ing
Ġcorrect ly
ĠMary land
um a
re m
Ġo xygen
ĠCle veland
Ġpurs ue
Ġclean ing
ĠStrateg y
Ġepis odes
s is
Ġrestaur ants
). ]
ĠB enef
v i
Ġenter prise
ist ing
Ġexpl icit
Ġthink s
Ġlist ening
Ġscen es
ĠNot es
man n
Ġprote in
Ġen ables
Ġpan els
ĠN intendo
w orld
ĠC oin
Ġth reshold
ĠIs s
Ġher itage
Ġcirc le
ch arg
es ides
ĠProgram me
E X
Ġagricult ure
ĠB ron
s erv
ĠLiber al
ĠV eter
Ġspecific ations
Ġlist ing
ac le
Ġk illing
ĠT al
re ction
ĠR u
ul pt
ĠN ich
O U
n ame
Ġhigh way
Ġbeg un
Ġaccomp anied
Ġclaim ing
al let
tain ment
ĠL ane
Ġbur ied
ste in
Ġlegisl ative
ĠN atural
Ġkeep s
ĠIndust ry
cl osure
we red
ĠHe art
Ġspect rum
ent ed
Ġbrand s
Ġcritic ism
atur ally
om y
b ing
ĠHer itage
ĠRel ations
ell o
Ġconsist ently
Ġt ips
ĠDef ense
ĠG ree
Ġf ro
ĠH D
ĠLim ited
exp ected
Ġto kens
f ts
Ġint ellectual
Ġundert ake
Ġdepos it
Ġboard s
Ġr h
Ġrenew able
Ġap artment
lah oma
ars h
Ġprodu cers
ĠAl f
orig inal
F S
min ute
us al
TI NG
ĠVol unt
ĠCon duct
h t
o il
Ġgrad uated
ar n
Ġneut ral
Ġmechan ical
Ġlog o
Ġdest ination
Ġg ross
ĠB at
Ġt aste
ĠU ber
ĠE ve
oc racy
Ġsuper visor
ĠEar l
Ġe le
ĠComp lete
ad vant
Ġfin ishing
ryst al
S he
Ġadm ission
ĠD raft
Ġsw itc
f ers
ĠL as
Ġgu ilty
Ġsoc cer
Ã ¤
et ch
x ide
Ġw ages
m outh
ĠB on
Ġm ath
ring e
ĠM ov
ĠUs er
Ġmechan isms
ĠEx ample
Ġref und
Ġgraph ics
ĠM oh
qu al
Ġcomm ence
Ġprom ised
Ġround s
ĠSer ver
ĠDep uty
Ġpush ing
Ġcomp osition
Ġmar ine
Ġrob ot
ĠArch itect
y ou
Ġinfl ation
ĠHot el
Ġrecru itment
w r
ĠL l
ĠPan el
s s
ĠPlay er
Ġflow s
Ġmin i
Ġc ogn
Ġdiscipl ine
0 2
Ġfoot age
Ġbur den
ol en
Ġatt ach
t ains
Ġf inger
ĠM L
ĠI owa
Ġevery body
Ġengine ers
Ġsignific ance
ĠN ic
Ġro ot
Ġsa ving
Ġautom atic
Ġnar rative
Ġarg ue
Ġbrother s
Ġtown s
Ġcharg ing
ĠIndian a
ĠAth let
Ġput s
ĠAr gent
Ġrele ases
ĠDe b
Ġover whel
Ġf ed
Ġtri ps
Ġgreat ly
ĠR ome
ĠDet ails
as hes
ene z
0 3
Ġr u
ades h
ĠInt el
Ġacknow ledge
o z
ĠESP N
ar r
Ġwat ched
ĠOr d
ĠOk lahoma
st ers
og s
D e
T O
Ġdispl ays
Ġconstit u
ĠIdent ify
ĠHolly wood
vent ions
ĠH an
Ġvert ical
Ġsupp lement
0 9
ĠRe ports
ain e
p o
Ġl ift
ap ing
Ġalgorith m
Ġ198 3
ra ising
ĠS elf
Ġan onym
m od
w oman
Ġmax im
Ġceleb rate
ĠM oon
Ġacc um
om ot
Ġincur red
Ġspe aker
Ġconc ert
Ġexp ed
Ġpartic les
th rough
AN D
Ġun su
Ġgen etic
6 00
ĠA CC
Ġimpl ications
Ġemerg ed
ĠInd ones
ĠImp lement
Ġsole ly
Ġthous and
w eek
ĠEmp ire
Ġg athered
C R
Ġtit led
ĠM ess
ĠEm ployment
el le
Ġdep uty
ow ered
ĠGarc ia
Ġinterpret ation
im p
Ġthreat s
end ors
Ġcorpor ation
ĠNether lands
Ġestablish ing
ĠCast le
ĠIs lam
B E
ĠE M
re ach
Ġh itting
pl us
ĠSoft ware
ĠCre ate
ĠM and
Ġfunction ality
ĠL yn
Ġt iss
he rent
Ġold est
ĠTra ck
O UR
Ġ5 9
ĠReg ion
ĠH om
ĠW W
Ġh idden
Ġme al
Ġaff airs
Ġal ive
pt ions
Ġor al
ect ions
ĠApplic ations
Ġwin ners
ĠL E
Ġh al
ĠGuid elines
G ener
ic he
ĠSom etimes
0 4
ĠD ennis
Ġdise ases
ĠR ow
EN D
Ġachie ving
ĠMe et
ĠLead ership
t rack
ĠSt one
ĠComm and
ĠFed eration
Ġne ck
Ġdem ol
Ġstay ed
Ġser vers
Ġprof its
Ġclass ified
p in
Ġfeel ings
Ġthreat ened
ĠPort land
Ġaddress ing
cript ions
Ġindic ators
rop olitan
Ġrespond ents
ust ain
ĠMal ays
ĠAtt orney
Ġh am
ĠCl imate
ĠMay be
Ġ197 9
Ġwonder ful
Ġequ ally
id ays
Ġspec ify
Ġsim ultane
ĠAll iance
Ġmed al
ĠHel p
or ry
Ġar ising
Ġatt ribut
Ġb le
ĠT ool
Ġpro curement
Ġemphas is
Ġb owl
ĠFrame work
O ne
Ġfab ric
Ġin nings
Ġg ains
ĠEns ure
Ġl ibr
ĠElect ric
Ġs oci
Ġla pt
Ġcontem porary
ĠRo om
Ġcoron avirus
ar o
Ġann iversary
Ġflex ibility
ĠSaud i
ĠCamb ridge
Ġs oph
Ġexhib ition
ĠDou gl
Ġ6 00
A d
Ġsuggest ions
ernand ez
Ġman ip
Ġpr ay
ĠMad rid
Ġemb ed
Ġt ur
Ġo w
ĠUn like
Â ®
Ġp in
ol ly
Ġbro wn
ĠE D
Ġkey board
0 8
ĠBet ween
Ġbreak s
p ower
ĠR ound
af e
as ion
ĠM ust
ĠTenn essee
Ġtot ally
or ous
Ġin quiry
Ġro ok
Ġsumm ar
Ġcollect ive
Ġrelig ion
ĠC e
b ell
Ġshould n
Ġd ated
ĠSe an
Ġinf ection
ĠLeg al
Ġapprec iate
b ered
Ġindic ating
T P
Ġmunicip ality
Ġf rag
ro ke
ĠL ib
Ġreport ers
iz ations
Ġass ists
ph a
Ġtim ing
Ġdepart ure
im bur
Ġdra g
ĠSaf e
ĠT R
Ġoff ence
Ġ197 6
est yle
ann on
li est
Ġ id
Ġ198 2
Ġag es
Ġexcl us
Ġwarm ing
ps on
Ġbrief ly
id ge
ĠDo ctor
i ors
ĠD ark
d isc
Ġs am
ut s
Ġcompl icated
Ġpres ents
ile y
ĠP eter
Ġaccommod ate
Ġt we
AC T
Ġbeaut y
Ġst uck
Ġball ot
Ġrec overed
ĠWin ter
Ġrat ings
Ġun ve
Ġmem or
P E
Ġsh r
ĠB M
y es
Ġbon us
Ġcross ing
Ġver ify
ĠT yp
Ġeng aging
Ġfood s
ĠImp act
Ġexecut ed
" :
ĠL ock
ĠVeg as
ĠResp onse
ĠG erald
Ġuncle ar
Ġoppon ents
cl usion
ĠAtt end
Ġmeaning ful
ĠJ unior
Ġwe igh
u ce
ĠHen ry
ou ri
ĠD omin
Ġf ought
mark et
ĠTur key
U s
Ġout door
Ġathlet es
ĠG DP
Ġcommission ed
ĠD ur
N S
t age
ĠSp r
Ġfocus es
Ġconvent ional
ĠF ri
ĠH ope
Ġrel ax
on na
Ġsm oke
ĠN ob
Ġmiss ions
Ġar med
ag en
aw are
om atic
Ġsol o
f ight
ĠLead er
ĠO cc
ĠM ath
ĠAct ivity
Ġproject ed
ie ce
Ġmet res
Ġoccup ied
Ġto ler
ĠSt age
ĠSp irit
ĠOver all
Ġact ors
Ġproduct ivity
Ġscholars hip
ac on
ang le
Ġhighlight ed
ĠK u
Ġdet er
Ġord inary
Ġke ys
Ġalleged ly
ĠMed icine
Ġexperim ents
Ġste am
ĠSub ject
Ġmist ake
Ġclass ification
ĠWil son
Ġcur ve
v ia
Ġleg s
ĠI M
Ġim per
Ġprevent ion
Ġloc ally
ĠIra q
W ith
ĠS ym
Ġl ux
Ġattack ed
Ġquant ity
ĠCom b
Ġwhere as
app y
est ed
ĠPer haps
ĠTe xt
U M
ĠC M
m aker
Ġm ac
Ġv endor
ast y
op t
Ġrecogn ised
am ination
8 7
Ġchild hood
n ity
Ġconsider able
Ġamend ments
ĠPitt s