_OOV_
_BOS_
!
"
#
$
%
&
'
(
)
*
+
,
-
.
/
0
1
2
3
4
5
6
7
8
9
:
;
<
=
>
?
@
A
B
C
D
E
F
G
H
I
J
K
L
M
N
O
P
Q
R
S
T
U
V
W
X
Y
Z
[
\
]
^
_
`
a
b
c
d
e
f
g
h
i
j
k
l
m
n
o
p
q
r
s
t
u
v
w
x
y
z
{
|
}
~
¡
¢
£
¤
¥
¦
§
¨
©
ª
«
¬
®
¯
°
±
²
³
´
µ
¶
·
¸
¹
º
»
¼
½
¾
¿
À
Á
Â
Ã
Ä
Å
Æ
Ç
È
É
Ê
Ë
Ì
Í
Î
Ï
Ð
Ñ
Ò
Ó
Ô
Õ
Ö
×
Ø
Ù
Ú
Û
Ü
Ý
Þ
ß
à
á
â
ã
ä
å
æ
ç
è
é
ê
ë
ì
í
î
ï
ð
ñ
ò
ó
ô
õ
ö
÷
ø
ù
ú
û
ü
ý
þ
ÿ
Ā
ā
Ă
ă
Ą
ą
Ć
ć
Ĉ
ĉ
Ċ
ċ
Č
č
Ď
ď
Đ
đ
Ē
ē
Ĕ
ĕ
Ė
ė
Ę
ę
Ě
ě
Ĝ
ĝ
Ğ
ğ
Ġ
ġ
Ģ
ģ
Ĥ
ĥ
Ħ
ħ
Ĩ
ĩ
Ī
ī
Ĭ
ĭ
Į
į
İ
ı
Ĳ
ĳ
Ĵ
ĵ
Ķ
ķ
ĸ
Ĺ
ĺ
Ļ
ļ
Ľ
ľ
Ŀ
ŀ
Ł
ł
Ń
Ġthe
Ġof
Ġto
Ġand
Ġa
Ġin
Ġfor
Ġis
Ġthat
Ġon
's
ĠThe
Ġwith
Ġbe
Ġ"
Ġ(
Ġas
Ġwas
ing
Ġby
Ġare
Ġor
Ġit
Ġat
ed
Ġfrom
Ġwill
Ġan
Ġhave
Ġthis
Ġyou
ĠI
Ġnot
Ġhas
Ġhe
er
Ġhis
Ġtheir
Ġcan
Ġwhich
ĠA
ĠB
Ġthey
ĠIn
Ġall
Ġbut
ers
ĠC
ĠS
al
Ġwe
ĠM
Ġsaid
Ġmore
ĠD
Ġwere
Ġone
ĠP
Ġyour
es
ly
Ġalso
or
Ġbeen
in
ĠR
Ġout
Ġwho
ĠH
ĠF
on
ĠL
Ġhad
ĠT
Ġits
ic
an
't
Ġother
Ġup
."
Ġabout
Ġtime
Ġwould
ĠN
Ġany
ĠG
ĠIt
it
ation
Ġwhen
,"
Ġfirst
Ġnew
Ġover
Ġthere
Ġthan
Ġif
ĠK
ate
ĠThis
Ġinto
ĠW
ar
Ġb
Ġmay
en
Ġtwo
Ġ1
ĠHe
Ġso
at
Ġafter
Ġour
).
Ġdo
is
Ġsome
ĠâĢĵ
Ġc
Ġp
Ġher
ĠE
Ġ2
Ġthem
Ġyear
Ġonly
Ġwhat
Ġpeople
as
Ġwork
ĠV
le
Ġf
th
ated
Ġno
Ġ3
Ġ-
Ġlike
Ġshould
el
Ġl
Ġsuch
Ġuse
Ġunder
Ġd
et
ant
am
Ġwhere
st
Ġyears
Ġt
Ġjust
Ġthese
Ġ'
ĠJ
),
ent
Ġhow
Ġcould
Ġshe
Ġthrough
ĠWe
us
Ġ$
ĠIf
Ġmake
Ġinformation
Ġwell
able
Ġmost
est
ia
Ġmade
ion
Ġused
Ġ5
re
ive
ad
Ġback
Ġbeing
il
Ġthen
ment
Ġeach
Ġm
Ġteam
Ġmust
Ġmy
ĠO
Ġ4
Ġre
Ġbefore
Ġget
ra
Ġpart
Ġbetween
ies
ĠU
ie
Ġnow
um
ors
ations
ig
Ġh
Ġduring
id
ine
ist
ol
ur
ity
ot
im
Ġthree
Ġmany
os
Ġlast
Ġneed
Ġg
Ġun
Ġshall
Ġ10
Ġst
Ġhim
Ġincluding
000
Ġthose
Ġdata
ings
Ġ6
Ġbecause
ĠFor
un
ating
Ġs
Ġper
ay
Ġway
ions
ian
Ġgame
ch
Ġsystem
ĠNew
Ġnumber
Ġtake
ĠBut
Ġschool
Ġw
Ġoff
Ġvery
ĠAs
Ġwhile
ĠSt
and
Ġ7
Ġend
Ġsupport
om
em
ab
op
Ġsame
Ġboth
ary
ro
ĠCh
Ġsee
ut
Ġeven
ical
Ġfollowing
Ġme
Ġmuch
Ġday
The
ard
Ġdown
Ġstudents
Ġhigh
Ġset
ics
're
Ġ8
Ġus
ure
Ġwithin
Ġagainst
se
ul
ĠâĢĶ
Ġpublic
Ġdifferent
Ġr
Ġgood
Ġaround
Ġright
ance
Ġcompany
ry
Ġ[
Ġstill
ter
Ġdon
Ġlong
ĠYou
ap
Ġn
ag
ĠThere
Ġ18
ments
Ġsh
ens
Ġseason
Ġprovide
ĠAnd
Ġprocess
ill
Ġstate
Ġproject
ĠSh
Ġhelp
Ġhome
ip
ac
ir
Ġusing
Ġservice
Ġfound
Ġown
Ġworld
Ġknow
ĠThey
20
Ġplace
Ġdid
ans
ts
Ġch
Ġservices
ri
ally
man
Ġ9
he
Ġnext
Ġsecond
age
als
Ġgovernment
".
Ġform
ates
ial
",
Ġwant
od
Ġsp
Ġgo
Ġavailable
Ġgoing
ons
ĠAl
Ġsince
Ġbest
ĠRe
Ġv
one
ĠAll
ĠOn
Ġ20
ĠShe
oc
Ġdoes
Ġarea
ore
Ġrequired
Ġwater
Ġinclude
its
ise
Ġhere
Ġ&
Ġbusiness
Ġperson
Ġanother
Ġlife
ĠUniversity
Ġorder
Ġgroup
Ġ12
ĠWhat
les
ĠTo
Ġthink
Ġ19
Ġlocal
ĠAn
ĠY
Ġfour
Ġevery
ish
up
Ġmillion
Ġwithout
are
Ġmembers
Ġdevelopment
Ġprogram
com
end
ous
ak
Ġde
Ġchange
ge
Ġcase
art
Ġplay
ah
ite
Ġuntil
all
Ġinter
ang
Ġe
ell
Ġaccess
Ġable
Ġsays
Ġlater
Ġdays
've
ce
ĠWhen
Ġweek
Ġreport
if
ĠNo
00
Ġname
Ġbased
ow
Ġj
ized
ne
Ġcommunity
ĠAt
Ġlevel
ĠState
Ġchildren
10
Ġworking
Ġimportant
per
Ġshow
av
ins
Ġline
Ġstaff
Ġdis
ass
ov
Ġhealth
Ġplan
Ġcare
ide
Ġ15
Ġresearch
ator
ĠZ
qu
the
out
Ġsc
Ġpoint
Ġfamily
Ġ.
Ġfull
Ġtop
her
ver
ub
Ġfew
old
ast
Ġcalled
Ġam
ĠHowever
âĢĵ
ile
ĠAfter
iv
Ġprovided
Ġcome
ĠAct
Ġcar
Ġpre
ĠUnited
ĠThat
Ġ11
19
Ġreally
red
Ġgiven
ud
Ġdesign
ative
og
Ġstart
Ġpost
Ġnon
Ġmarket
Ġmight
Ġbetter
Ġperiod
Ġcourse
Ġdue
Ġless
Ġpower
Ġleft
Ġfind
Ġsmall
ling
ve
ets
Ġstudent
Ġcurrent
Ġcity
Ġfree
res
Ġknown
ory
We
ley
Ġman
Ġfive
Ġearly
ue
ĠCl
Ġpossible
ick
Ġcost
Ġtoo
ĠBe
Ġleast
Ġmaking
ier
Ġtold
Ġco
Ġhand
âĢĶ
pl
Ġrun
ĠNational
Ġlook
ner
ain
ness
ures
Ġcon
Ġlaw
land
ĠSo
Ġopen
Ġ30
Ġsay
led
ants
Ġlot
ition
ĠOne
ee
Ġexample
Ġ16
Ġseveral
ĠUS
Ġfuture
ib
nd
ence
ER
ful
our
ath
Ġgreat
Ġpay
Ġcl
Ġen
Ġhead
Ġreal
Ġfinal
Ġcontract
Ġthings
Ġ17
ph
ou
Ġacross
ting
Ġalready
ight
ered
Ġal
ĠLe
Ġ0
ically
ke
Ġfurther
Ġtimes
Ġexperience
Ġcountry
Ġmember
ĠCity
Ġbuilding
ning
ash
'll
Ġgames
Ġstudy
ale
io
ĠThese
Ġsocial
Ġcomp
Ġneeds
Ġgive
ik
ised
Ġput
ism
Ġwhether
Ġevent
Ġlarge
ĠMay
Ġpast
Ġmeans
ice
'm
Ġbelow
way
Ġsomething
ob
Ġtraining
Ġabove
year
au
Ġland
Ġ13
Ġapplication
Ġbecome
Ġ2017
ual
Ġmain
Ġside
ort
Ġplayers
Ġclass
Ġpercent
ery
Ġhaving
ĠCo
Ġareas
Ġwon
Ġ14
ĠSchool
Ġmeeting
ĠEx
Ġ2016
Ġcontrol
ES
Ġagain
Ġtook
ane
Ġair
.,
Ġgot
Ġsection
ĠSouth
Ġreview
Ġaccording
Ġqu
Ġmonths
Ġmoney
ĠHow
Ġalong
Ġshort
Ġpro
Ġperformance
ire
ust
Ġsite
ats
Ġdate
30
Ġ2018
Ġthird
Ġint
Ġnever
Ġseries
ĠWorld
Ġlittle
Ġresult
Ġsl
Ġlist
ĠAr
Ġreceived
ong
ear
Ġchild
ind
Ġspecial
ĠAmerican
Ġmet
Ġmanagement
Ġaway
ĠMr
Ġspace
Ġrecord
Ġ2015
Ġhours
Ġensure
ert
ron
ber
Ġsub
ty
Ġalways
Ġo
to
ability
Ġoften
Ġrest
Ġdecision
Ġpoints
ities
ton
ĠPro
less
ĠAd
50
Ġmajor
ĠMar
ars
Ġactivities
iz
ack
It
Ġtaken
Ġfar
ug
ĠDe
Ġtest
Ġbecame
Ġchanges
ents
aw
Ġposition
Ġread
Ġkeep
ĠWith
Ġle
Ġse
Ġadded
ational
ĠMarch
ited
Ġfinancial
ose
oy
Ġaction
Ġpolicy
ep
hes
Ġtax
ists
ĠBy
Ġpresent
Ġissues
Ġformer
ize
Ġtogether
ĠCouncil
Ġvalue
Ġtotal
ĠNorth
let
Ġcontact
ĠTh
Ġheld
Ġcame
Ġmove
ock
ĠJune
Ġsingle
Ġrole
Ġamount
ade
Ġfield
Ġgeneral
sh
Ġkey
ĠStates
Ġ2014
AR
Ġlikely
els
Ġlow
Ġaccount
ĠX
Ġsimilar
ake
12
Ġrequirements
Ġothers
Ġhard
Ġincluded
Ġfact
ĠYork
Ġapp
Ġrisk
Ġbig
ach
ys
Ġdeal
Ġwhy
ĠWhile
ĠDepartment
Ġnational
Ġsure
Ġcourt
ĠApril
Ġmonth
Ġenergy
Ġdone
Ġamong
Ġindividual
Ġresults
Ġadditional
Ġspecific
ess
ĠMan
Ġseen
Ġpersonal
ible
ification
Ġcomplete
ology
Ġtechnology
ric
ĠBoard
ages
ious
Ġquestion
Ġplayer
Ġsix
Ġappropriate
ĠJuly
Ġfl
15
Ġexpected
Ġinterest
ĠSp
te
Ġeither
ĠJanuary
Ġtoday
Ġeducation
Ġstarted
Ġcreate
ĠSeptember
Ġonce
Ġthough
ord
Ġclear
Ġenough
ond
Ġquestions
ular
ines
Ġmodel
ont
Ġrel
Ġbook
Ġpl
Ġparty
ec
Ġoffice
ĠSc
Ġimpact
Ġlight
Ġpotential
Ġterms
Ġhalf
Ġvideo
Ġ25
Ġwent
18
Ġsystems
Ġyoung
Ġfood
hip
ĠOctober
Ġindustry
Ġrate
ĠWar
Ġcosts
ĠRes
Ġhowever
by
ays
ium
Ġissue
ced
ai
att
ase
Ġcompanies
Ġshare
Ġtravel
Ġfilm
Ġrec
Ġplayed
Ġallow
ail
Ġ2013
Ġaddition
Ġincrease
Ġhuman
Ġbody
AL
Ġcareer
Ġcontinue
ĠEd
Ġmedia
Ġlead
Ġquality
Ġjob
Ġconsidered
Ġreleased
ĠAugust
Ġlearning
Ġ24
Ġonline
Ġcheck
Ġreported
Ġproblem
Ġage
Ġevidence
Ġnecessary
Ġfire
Ġneeded
Ġwin
Ġoffer
ĠJohn
ok
IC
ĠHis
AN
ĠDecember
int
Ġbuilt
Ġview
Ġsubject
Ġab
Ġth
act
Ġdidn
Ġres
ome
Ġk
Ġproduct
Ġbegan
ization
OR
Ġdef
ĠWest
Ġbl
Ġcall
Ġ2019
ration
Ġasked
Ġtaking
Ġreturn
Ġnetwork
cl
Ġlive
Ġart
Ġproperty
Ġ/
Ġmeet
ĠHealth
Ġ50
Ġnight
hed
air
Ġwritten
Ġ100
ators
Ġterm
Ġstory
Ġtype
Ġminutes
Ġboard
ient
IS
Ġold
Ġins
Ġpractice
Ġhistory
ost
amp
Ġnear
az
Ġconditions
Ġcent
Ġinf
ank
Ġsent
ĠPlease
Ġgoal
ĠNovember
Ġhigher
iss
Ã©
Ġ2012
Ġmakes
Ġlooking
time
Ġcurrently
Ġincludes
Ġprior
Ġrequest
Ġfeel
11
Ġnews
ots
Ġwebsite
Ġclose
ĠBr
Ġusers
line
Ġrange
ru
ĠSe
son
Ġra
Ġevents
Ġdoing
Ġprice
ink
Ġsecurity
Ġoriginal
ace
Ġmod
ll
Ġannounced
Ġclub
Ġplans
AC
ves
Ġoutside
ĠPl
Ġmusic
Ġbuild
ional
based
ck
Ġcont
ĠSection
Ġyet
ĠCounty
Ġupon
Ġcompleted
ĠBar
Ġrelated
ored
Ġunderstand
Ġpolice
ĠBl
ED
Ġaddress
Ġsuccess
Ġemail
Ġtra
ĠCommittee
Ġforward
ring
of
ven
Ġstatement
Ġever
ĠSome
AS
ĠAustralia
acy
ied
AT
Ġ,
Ġworks
Ġrecent
Ġrep
Ġproducts
Ġlate
ex
ble
ians
ĠNe
Ġsafety
ĠUK
ĠPark
Ġinvolved
Ġthing
ark
ged
Ġvia
16
Ġvarious
Ġsignificant
Ġcons
Ġfront
Ġrelease
Ġversion
ene
Ġcomes
ĠCar
Ġ--
Ġproduction
Ġgl
ises
ame
Ġ#
Ġwomen
Ġref
Ġreceive
Ġaverage
Ġdetails
ĠQ
Ġdoesn
ew
Ġ2011
ĠHar
Ġgetting
ured
vers
Ġimp
Ġcreated
Ġprojects
Ġskills
Ġprofessional
Ġcontent
Ġhouse
mer
ĠIs
Ġex
itions
ĠDr
Ġactually
ĠPre
Ġled
Ġrights
Ġred
Ġstandard
pt
Ġshows
nt
Ġturn
Ġpass
ĠOr
EC
ĠLeague
17
14
ĠFebruary
Ġlet
ps
Ġteams
Ġpublished
ĠAm
Ġsign
Ġgroups
sc
ix
Ġprovides
Ġmatch
ified
ĠComp
Ġresources
Ġability
Ġbehind
Ġ2010
Ġproposed
ances
Ġstation
Ġad
ĠEl
Ġadd
Ġkind
ĠTe
ĠÂ£
ina
Ġmon
ĠInc
ĠUn
ĠFl
be
Ġthought
ives
anc
ined
Ġrather
ere
iting
ff
ĠCol
Ġlegal
Ġtext
Ġrelevant
Ġcoming
Ġinternational
Ġparticular
Ġweeks
Ġpage
Ġlove
Ġwar
Ġcases
.)
Ġenvironment
Ġcommon
Ġsoon
Ġface
Ġreason
Ġcountries
Ġstrong
ĠChina
Ġresponse
ĠLondon
pe
Ġopportunity
Ġdeveloped
Ġdes
ave
Ġdocument
Ġself
Ġprivate
Ġlimited
Ġpaper
ign
Ġconsider
Ġroad
ĠMe
ĠMc
ĠGeneral
ĠNot
Ġcomm
Ġapproach
Ġplaying
ends
Ġemployees
Ġcannot
Ġprevious
ĠService
13
Ġfollow
Ġground
ĠRed
Ġplease
ological
atic
Ġgrowth
Ġsuper
Ġlevels
Ġwhole
Ġalmost
Ġwriting
Ġknowledge
ality
Ġcampaign
ering
Ġ196
ft
Ġproblems
Ġcertain
ct
ĠOther
Ġball
ĠGroup
Ġprogress
ĠPresident
ually
Ġequipment
Ġdesigned
Ġeffect
sp
ĠBritish
Ġdevelop
Ġetc
ger
arm
Ġleave
ising
Ġresponsible
ĠDo
Ġprograms
off
Ġatt
Ġmaterial
Ġsu
ues
Ġmatter
Ġlost
Ġreports
af
Ġroom
ress
Ġfeatures
Ġinv
ĠGovernment
Ġlonger
'd
ĠGu
ĠCollege
Ġ40
ces
ĠCourt
Ġlocated
Ġactivity
ĠAb
Ġfunding
Ġparents
Ġ=
aking
Ġfocus
ending
Ġdisc
inal
ĠEnglish
ards
Ġ22
ĠAccording
Ġsafe
Ġapply
Ġdeath
ater
over
ĠCommission
ON
Ġmid
ĠSan
ĠDuring
ams
Ġpaid
Ġbelieve
Ġschools
ax
ett
Ġlower
Ġnamed
Ġrunning
Ġ21
Ġhold
Ġrules
Ġpres
ĠCO
iff
erm
IN
Ġbring
Ġago
Ġorganization
Ġcor
Ġmen
Ġagreement
Ġidea
Ġbreak
Ġdirect
Ġpopulation
ann
Ġsource
Ġmin
ĠEuropean
Ġbit
ĠIndia
atch
ung
Ġ197
Ġtry
ĠInternational
Ġconstruction
co
ler
Ġsize
Ġexpect
ĠServices
back
ges
In
ural
Ġprotect
ĠWork
Ġofficial
Ġcharacter
Ġbasis
ime
Ġhit
Ġbar
ately
row
Ġbillion
ĠHigh
Ġworked
day
Ġmedical
ox
ĠProgram
AM
istic
25
Ġlanguage
pp
ĠFirst
ĠCenter
Ġsoftware
Ġtable
ĠQu
ren
ĠEngland
200
ĠGr
Ġgoals
orn
Ġexisting
ĠStreet
ulation
Ġcustomers
Ġ194
port
Ġfin
Ġestablished
Ġpurpose
Ġdist
Ġrem
ĠOffice
ĠProject
Ġthroughout
Ġassessment
ĠGoogle
ĠHouse
ases
ĠMy
ern
Ġallowed
Ġtitle
ury
Ġways
arg
Ġrequire
Ġespecially
ĠMore
Ġpopular
Ġact
ĠNow
work
itt
Ġanalysis
ving
Ġnotice
ound
ĠAir
ably
ĠPart
enn
pped
own
field
iation
Ġloss
orm
Ġeconomic
bs
Ġask
for
ining
Ġuser
Ġspeed
Ġtrack
Ġ23
Ġten
Ġcr
Ġnumbers
Ġtown
Ġret
ĠSw
Ġauthor
form
ana
rom
Ġmean
Ġstates
ĠFriday
Ġmind
Ġmaterials
Ġapproved
ify
Ġ2009
Ġrespect
Ġplanning
TI
Ġmoved
Ġpolitical
Ġremain
âĢ¦
ĠEducation
Ġentire
Ġar
we
ĠCon
ĠInd
Ġtrying
Ġcode
Ġproviding
ĠForm
Ġdirectly
Ġdescribed
Ġinc
uring
Ġregion
Ġannual
Ġhost
Ġitself
ĠFrom
Ġwords
Ġdirector
Ġliving
ĠCanada
Ġsaw
ĠApp
IT
Ġearlier
AP
ood
ĠMark
Ġeffective
Ġhope
und
Ġcause
Ġround
ging
Ġglobal
Ġport
ĠCalifornia
ze
ĠMinister
ari
Ġpick
ĠGl
Ġphone
ops
ĠGod
na
ĠPlan
Ġfall
Ġlocation
Ġagency
Ġpositive
Ġimprove
Ġsk
urs
ham
der
ks
Ġinstead
Ġcount
Ġserved
Ġcredit
uck
ills
Ġ2008
Ġwanted
Ġconf
EN
Ġlearn
Ġlog
ĠMonday
Ġattack
ific
ster
Ġrecently
Ġtrans
Ġscreen
ĠPh
Ġbuy
aries
Ġcard
yl
ency
ree
Ġbenefits
Ġitems
Ġfunds
ith
Ġsw
con
vel
Ġsigned
Ġmultiple
ĠAssociation
Ġmethod
Ġbase
erv
Ġstandards
Ġsomeone
me
Ġbudget
ature
ral
ĠSch
ild
Ġbank
ories
Ġincome
Ġworkers
ull
ĠAny
ĠPat
Ġdemand
Ġ28
Ġdel
Ġtrade
Ġsuccessful
val
Ġstay
Ġdifficult
St
Ġfunction
Ġregular
ĠRec
Ġ26
Ġeveryone
Ġmanager
Ġcontinued
lin
Ġcoach
ĠAustralian
ĠPublic
ased
Ġprevent
uc
ather
Ġanything
Ġlack
Ġthemselves
ĠCons
ĠEn
Ġtakes
Ġoverall
Ġstep
Ġincreased
Ġbi
rain
rit
ted
ĠSuper
itation
Ġidentified
ĠCompany
de
ĠInformation
Ġdecided
inc
ĠCup
Ġmed
Ġsituation
Ġcapital
ĠInter
Ġpress
Ġcut
Ġsummer
Ġphysical
ĠDirector
Ġfans
ma
Ġsearch
Ġbad
Ġunit
ides
urn
ect
Ġfootball
Ġseven
Ġisn
Ġparts
Ġformula
Ġdied
Ġsold
Ġ27
Ġrecords
Ġprobably
ved
Ġgas
Ġfederal
Ġnatural
Ġapplications
ĠHer
Ġeight
Ġtowards
Ġwrote
Ġstage
Ġfun
Ġreflect
Ġdepartment
Ġind
Ġeasy
izing
ĠOur
ished
Ġassociated
Ġfile
Ġvote
Ġoperations
Ġforce
ĠGo
atory
cept
Ġindividuals
ĠResearch
Ġcommittee
ries
Ġcompet
ĠAmerica
Ġnorth
ĠUnder
Ġfriends
Ġleading
Ġelection
ected
Ġextra
ially
Ġche
rop
Ġgr
ount
Ġblack
Ġstructure
ĠDis
Ġeverything
ĠPr
):
Ġpar
Ġrace
Ġsaying
Ġcomplex
pro
Ġstop
ĠTr
ĠCan
Ġplant
Ġimage
Ġletter
Ġblock
ĠLaw
Ġexam
ĠTV
aj
Ġflow
Ġpack
ĠIm
Ġpayment
40
Ġofficer
Ġ195
Ġcapacity
Ġfirm
ĠSince
ĠSunday
ST
Ġcover
ĠPer
Ġdec
PA
Ġheart
min
Ġ2007
ision
ĠManagement
Ġregarding
Ġinside
Ġsales
Ġstatus
.'
ĠEast
cent
ĠGreen
Ġtreatment
read
Ġcomputer
Ġoption
Ġshown
Ġcomment
Ġtri
Ġdocuments
ĠBank
Ġvisit
ute
ĠDay
lic
umb
Ġbu
Ġcentury
ford
Ġcollect
eng
ole
oring
Ġparties
Ġstarting
Ġopportunities
Ġcross
Ġdistrict
ently
ĠEach
Ġcur
ĠStudents
ĠFacebook
ook
Ġdigital
ĠMin
Ġvehicle
Ġdevice
Ġsimple
Ġplatform
SA
ĠYour
eth
oll
Ġi
use
Ġfather
60
Ġhimself
Ġchance
Ġgave
Ġimmediately
Ġofficials
Ġquickly
Ġoptions
Ġquite
Ġallows
ĠEurope
Ġdetermine
ender
ĠOut
ĠTuesday
Ġoil
ales
Ġminimum
Ġac
cy
Ġreturned
low
ains
Ġsimply
ple
ively
ired
Ġson
Ġfund
Ġagreed
Ġaffect
Ġunderstanding
Ġev
Ġbox
akes
ĠHall
Ġ*
ĠHere
Ġmoment
Ġtrust
Ġpatients
Ġtypes
ĠThursday
Ġaccordance
ĠTrans
Ġ60
Ġlaunch
cing
Ġbrought
Ġy
ĠCor
hips
Ġusually
ĠWednesday
Ġinvestment
ĠDevelopment
ET
Ġuses
?"
ush
Ġclaim
ĠRiver
ĠFrench
Ġperform
ms
Ġsound
Ġsm
Ġfollowed
Ġreg
ĠDistrict
ope
Ġprocedures
Ġalthough
Ġassist
ights
Ġtell
Ġspecies
ĠSub
ĠRoad
so
Ġro
Ġtarget
yn
Ġbenefit
Ġband
ches
ĠBu
ĠCal
ĠEm
Ġcenter
rick
ices
Ġsouth
Ġpark
ĠDon
Ġexp
ĠApple
Ġprimary
ĠAP
Ġfully
Ġnature
Ġselect
Ġwhose
Ġnearly
Ġfast
Ġcollege
Ġstore
ĠII
ours
Ġanswer
Ġpolicies
ication
CC
Ġlargest
Ġdevices
Ġpreviously
ote
Ġemployee
Ġlisted
Ġspent
hen
Ġproduced
Ġnote
Ġ29
itor
This
Ġavoid
oth
Ġrock
Ġcharge
Ġpath
Ġcondition
Ġcopy
Ġinterview
Ġreach
ott
ĠTra
Ġte
ĠRE
Ġleague
ior
Ġhospital
Ġtrue
ĠPar
Ġpresident
ĠBlack
Ġfamilies
Ġstar
Ġparticularly
Ġactive
Ġappear
Ġexc
Ġver
ĠâĢ¢
Ġbeginning
ĠOver
Ġrelationship
Ġworth
Ġsources
Ġseems
ĠSaturday
ros
Ġpressure
Ġfeature
ĠTeam
Ġsubmitted
Ġstated
Ġdamage
Ġsense
Ġ31
ode
ĠData
Ġconduct
...
://
rew
Ġext
Ġbr
Ġwh
Ġstock
ĠCont
roll
ĠCom
Ġrates
eter
Ġtransfer
ict
ĠKing
Ġclimate
);
Ġrespond
Ġchanged
aging
Ġoffered
fer
ĠReport
Ġidentify
ĠAlthough
Ġmilitary
Ġmother
Ġnoted
oo
Ġtour
Ġcentral
ody
uk
Ġstand
Ġconst
ĠPaul
ara
Ġfight
ville
ees
Ġmis
Ġremains
ĠNews
ris
ĠBusiness
Ġexcept
Ġopened
CA
Ġpurposes
Ġsector
Ġdiscuss
Ġcompetition
Ġrev
ĠYear
Ġne
Ġmeasures
Ġsupply
OS
22
Ġunique
che
Ġapplicable
Ġlatest
Ġstri
Ġresponsibility
Ġgiving
ared
ids
Ġattention
Ġdr
Ġefforts
ĠLa
Ġdeep
Ġissued
Ġcouple
ĠReg
Ġ2006
view
Ġsurface
Ġapproval
Ġresidents
Ġmeetings
Ġbus
Ġspec
uel
Ġ2020
Ġplaced
Ġgreater
Ġscore
Ġoperation
pping
Ġdraft
Ġcontain
80
Ġinitial
Ġcommercial
Ġdraw
Ġbroad
set
ract
Ġed
Ġoperating
Ġdrive
ĠMon
Ġnothing
Ġsell
ĠOF
ĠMost
Ġeffort
Ġquarter
Ġrequires
ĠIN
Ġtr
term
Ġbegin
ĠEU
Ġmoving
Ġmajority
ones
aker
ae
Ġcorrect
ĠWashington
Ġconcerns
Ġbo
Ġstudies
Ġrad
Ġactions
Ġdep
Ġtalk
ĠClub
Ġfacilities
board
Ġarticle
Ġalbum
Ġunits
Ġprotection
Ġwide
Ġmeasure
Ġreduce
ility
aps
Ġeconomy
aster
Ġlink
Ġtechnical
ibility
Ġgrant
Ġaward
Ġclaims
Ġdegree
Ġacademic
Ġenter
Ġword
Ġready
Ġmodern
Ġtesting
PS
Ġlives
Ġindependent
Ġattend
oun
Ġpo
Ġgra
Ġserve
ĠArt
Ġhuge
Ġmaintain
Ġseparate
ĠUnion
ĠPlay
ange
ense
ental
ination
ward
Ġachieve
Ġgener
Ġgrad
ĠContractor
Ġhousing
ich
Ġleader
Ġemployment
itive
Ġcommunication
Ġproposal
Ġcompared
Ġwind
Ġconnect
Ġass
LE
Ġship
Ġsurvey
Ġborn
any
Ġwhite
Ġmorning
ĠSte
Ġreasons
asing
oe
ino
Ġoccur
Ġdi
Ġweb
Ġ("
Ġinst
iding
ĠContract
Ġroll
Ġoffers
ĠAgreement
Ġotherwise
Ġdet
EM
Ġauthority
ites
ĠFund
Ġpresented
ily
RA
ret
Ġbeyond
ences
Ġshot
Ġbill
pos
ĠOnce
ĠBay
Ġscience
Ġgen
ires
Ġchief
ĠChinese
ption
ĠMor
ĠTwo
app
Ġlines
ĠEarth
Ġcollection
24
Ġ:
amb
med
Ġconference
aid
Ġanyone
Ġturned
Ġfacility
Ġwasn
Ġsolution
ĠInstitute
Ġvalues
ove
well
Ġclick
ĠHistory
Ġcaused
ĠMany
Ġattempt
Ġdetermined
BC
Ġaccept
Ġdefined
ĠOf
Ġunless
eb
ĠIndian
play
ĠClass
Ġtrain
room
mark
Ġz
atives
ography
Ġshared
Ġselected
Ġreached
Ġgoes
21
Ġeffects
see
ĠAg
Ġforms
Ġahead
Ġsenior
Ġhands
Ġelse
Ġhighest
ĠST
oss
ĠPost
eline
Ġmobile
amed
Ġenvironmental
Ġclosed
Ġlarger
Ġcap
que
Ġsens
ĠTwitter
Ġlength
Ġtraffic
Ġemergency
ID
ult
Ġreading
bor
ym
Ġem
Ġcoll
Ġpatient
Ġmission
Ġgrowing
ĠUse
down
Ġcommand
Ġfit
Ġresearchers
Ġexplain
Ġpretty
UR
ĠParty
Ġprices
gg
ĠSk
Ġelect
Ġdeveloping
Ġinjury
He
Ġsa
Ġcommunities
ĠDel
Ġhour
Ġsend
ĠAlso
Ġcouncil
Ġpr
Ġchoose
ĠPol
Ġtools
Ġdev
Ġinvestig
ha
Ġrecorded
Ġcritical
Ġinsurance
ĠReview
ĠOpen
une
ĠDec
rid
Ġdelivery
Ġtrad
cle
Ġclean
Ġbusinesses
Ġfelt
Ġtherefore
ĠBrown
Ġparent
Ġjoined
ĠThen
Ġenjoy
ows
Ġ193
Ġmark
ony
23
rol
Ġenc
Ġproduce
Ġexecutive
Ġofficers
Ġprovision
ĠWill
ways
Ġcast
itting
Ġphys
ils
Ġleg
Ġdifference
Ġseek
Ġchoice
ĠPolice
Ġcustomer
ĠEven
Ġcars
Ġadjust
erson
ng
Ġteacher
Ġopening
ously
Ġchurch
Ġimplementation
Ġideas
ĠWhere
ING
Ġwrite
TION
Ġund
Ġinform
Ġweight
ider
ĠTexas
iles
ĠCode
Ġpassed
iring
pper
Ġconc
ATION
Ġdem
Ġdecisions
Ġstat
ĠSystem
Ġmodels
Ġsteps
ĠMac
ĠMont
ifying
anced
Ġgenerally
ĠDivision
Ġspread
ĠWhite
Ġload
ough
ĠSam
Ġstyle
Ġsong
Ġparticipants
side
Ġopt
Ġnation
ivity
Ġvol
Ġsn
Ġvariety
PL
Ġvehicles
Ġconsult
iver
Ġdisplay
Ġowner
Ġtraditional
ten
Ġrule
Ġbasic
Ch
Ġnormal
Ġsetting
Ġge
Ġfeet
ĠEv
Ġpurchase
aring
book
fully
ĠCommunity
Ġdirection
Ġlif
Ġseem
Ġperformed
Ġgreen
ĠNote
Ġgives
Ġinvestigation
Ġpain
Ġpractices
Ġ+
Ġraised
MS
lection
Ġsites
Ġsubmit
Ġwife
")
Ġtransport
Ġjoin
Ġ2005
oh
oon
vin
mon
Ġsupported
ĠSu
Ġent
ek
ney
IL
Ġcreating
ĠSol
Ġlay
Ġmethods
Ġgrow
Ġpartners
Ġreference
Ġbrand
Ġsur
ower
Ġdespite
Ġcovered
Ġhappen
rated
Ġhighly
Ġfinished
Ġcivil
Ġshowed
Ġconfirmed
Ġregulations
go
ld
Ġperfect
cast
Ġappears
house
IP
CE
ĠExecutive
ĠVal
Ġcell
Ġcompl
70
Ġslow
500
Ġcomments
Ġruns
Ġprocesses
ĠMicrosoft
Ġhelped
Ġlooks
Ġstrategy
Ġserious
Ġpoor
amm
Ġincident
CO
ĠPe
Ġfactors
Ġwalk
imate
Ġelements
iving
Ġconcept
Ġjobs
Ġupdate
ancy
ĠMain
Ġtool
Ġsuggest
Ġsol
iers
head
Ġdeliver
Ġwatch
ners
Ġdead
Ġappeal
Ġsometimes
lands
vent
ident
cel
Ġwants
ĠSupport
ios
ĠWhy
Ġteachers
Ġconducted
Ġcash
Ġbiggest
ĠSocial
Ġcompletely
pr
99
Ġinvest
Ġagree
Ġdiscussion
Ġdaily
Ġpe
Ġfore
ĠLet
Ġfarm
ray
Ġwoman
bit
Ġemb
ĠInst
rel
Ġappeared
Ġmiddle
acing
Ġgain
ĠWell
Ġobject
Ġplaces
ef
Ġintroduced
Ġcarried
Ġmaximum
Ġchallenge
Ġcore
Ġforeign
ided
Ġkept
Ġapplied
Ġteaching
unt
aut
ĠÂ§
Ġel
wood
err
RE
ĠFrance
Ġequ
Ġbooks
Ġleadership
uation
ained
ĠChurch
Ġpat
ĠRem
erg
OT
Ġeventually
Ġlaunched
Ġwrong
iction
Ġmessage
Ġreporting
illing
ject
Ġheard
ĠScience
ata
ĠStar
ĠChief
Ġdriver
ips
Ġrefer
ended
Ġhot
ched
Ġfloor
duct
itude
ential
ĠPal
Ġappointed
DA
ool
ball
Ġvari
Ġrepl
wards
erry
ĠTable
Ġaffected
Ġfees
Ġculture
Ġmass
Ġeasily
Ġaircraft
Ġcarry
Ġrank
ands
ij
Ġpartner
ram
ĠIT
Ġnames
Ġcamp
Ġclearly
ĠPolicy
Ġlooked
Ġfollows
leg
Ġassistance
ĠDef
ison
oin
Ġ80
Ġconnection
ming
Ġfourth
Ġfee
Ġcircumstances
Ġcriteria
Ġmovement
ued
Ġmeaning
ĠGerman
Ġexchange
ĠIsland
90
ĠEvery
BS
oul
Ġear
ĠProv
Ġbuildings
arch
ien
US
Ġfoot
Ġengine
isation
oot
Ġspecified
ancing
za
Ġinterested
Ġ2000
Ġste
ump
Ġcol
lect
ĠSal
Ġfinally
alt
ection
Ġcentre
ials
Ġsports
ĠCEO
Ġreasonable
Ġscale
ĠStudent
ding
ny
Ġgrade
Ġvalid
Ġgets
Ġleaving
rown
Ġactual
Ġfigure
Ġlaws
Ġattract
Ġcontinues
ĠChe
Ġtask
ĠFederal
Ġtw
Ġradio
Ġretail
Ġinfrastructure
ĠBen
EL
airs
Ġcolor
Ġgold
ĠFr
Ġschedule
uss
gr
Ġrent
Ġformat
ica
Ġnotes
ĠLast
Ġobtain
ird
Ġadvice
ĠPeople
TC
Ġleaders
Ġsave
ference
rie
ĠCamp
eds
45
rest
Ġwild
ĠCentral
gh
Ġparticipate
lier
Ġhearing
Ġcalls
ivers
Ġfailed
Ġintended
ĠWindows
Ġplanned
Ġx
100
Ġsale
Ġbid
Ġaware
Ġjournal
ulated
ĠMed
Ġfair
Ġorgan
If
Ġhappened
Ġcool
Ġuniversity
Ġ90
Ġhappy
Ġreferred
reg
ĠÂ
ĠJapan
Ġice
Ġ2004
ĠHead
ĠAC
Ġremoved
ĠBitcoin
ĠGe
Ġadding
Ġlo
You
Ġacc
ception
ii
Ġstorage
ĠPC
Ġauthorities
ĠPet
Ġqual
Ġ@
Ġagencies
Ġeligible
As
oid
ĠUN
Ġbur
rate
Ġones
Ġprepared
Ġsmaller
ĠName
Ġblood
Ġlimit
ever
ĠRoyal
ĠSpecial
erve
Ġlock
Ġeth
Ġmanaged
Ġprogramme
Ġdoor
ĠRob
ĠWater
Ġval
Ġinternal
Ġspot
sec
ĠPay
Ġharm
elt
aff
Ġtrial
Ġur
Ġdistribution
'.
SP
ĠGood
Ġorganizations
Ġended
unk
Ġsecure
iled
Ġfuel
ĠDesign
Ġcom
Ġrevealed
ĠCanadian
ape
ables
itors
35
ius
apt
Ġwinning
Ġanaly
Ġcompliance
ĠAnother
RC
pm
Ġevaluation
ĠAss
oes
itch
my
Ġhear
Ġdrop
Ġmanner
rap
Ġpiece
Ġ190
Ġassets
FC
ression
ĠTrust
26
ĠAfrica
ĠAc
Ġsun
ĠSecond
utes
Ġnine
ĠCare
Ġthinking
raw
used
Ġregional
Ġple
ĠNor
Ġdouble
Ġfunctions
men
ĠTHE
ĠMet
ĠFire
Ġthreat
Ġmult
rs
27
ĠSociety
lete
Ġsupporting
ĠHome
Ġaud
Ġinstitution
Ġweather
Ġdisease
osing
Ġequal
Ġdebut
Ġstr
izes
Ġcities
ĠWh
Ġceleb
Ġtried
Ġadapt
Ġcoordin
OL
Ġtelevision
SS
aged
ĠJust
ĠManager
ened
Ġ35
uses
inary
Ġremaining
Ġcoast
Ġheat
Ġmiles
Ġmonitoring
There
ĠRead
Ġsepar
Ġthus
ĠCentre
Ġminor
ĠTime
Ġfeedback
ĠSl
Ġtem
Ġbound
ĠHill
Ġincreasing
Ġca
Ġwhom
Ġlab
Ġscored
here
Ġpredict
ĠBoth
du
akers
ifications
Ġaccepted
unch
ĠYes
Ġfriend
arter
Ġadvance
tt
ĠAre
ĠAND
ience
Ġ70
Ġentry
Ġsociety
Ġcirc
ission
Ġcustom
urer
ĠTest
ĠMod
ĠBill
ĠBur
Ġbecoming
Ġconsist
ames
Ġalternative
Ġapproximately
olf
Ġnet
Ġpersons
Ġimages
ĠLu
Ġmar
iet
Ġelected
Ġvillage
ĠFin
Ġexpl
AD
oor
iling
Ġawarded
ĠOfficer
Ġbackground
ĠCongress
Ġkilled
Ġinteresting
ĠNetwork
Ġu
TS
Ġsea
Ġpol
Ġspeak
unction
arc
Ġrise
Ġforces
Ġtemperature
Ġbehavior
Ġregistered
Ġmotion
Ġclient
Ġstrength
Ġrevenue
Ġreceiving
ules
Ġroute
ipp
ying
Ġprovisions
illed
sk
ĠSecretary
Ġadvantage
Ġkn
Ġminister
right
Ġmeant
28
Ġtoward
Ġcandidate
berg
sw
ĠComm
ĠTO
Ġrepresent
ĠAward
Ġalone
Ġfine
Ġsession
Ġflight
ĠGame
Ġentered
iance
iness
Ġformed
Ġoutcomes
Ġrecip
..
Ġwood
ĠFlorida
Ġcharacters
Ġdetailed
ĠLand
igned
ĠInt
Ġparticipation
Ġsupp
Ġbul
imal
ula
Ġâ
ening
Ġchallenges
Ġolder
ĠAv
Ġcommission
ĠGreat
other
ĠSim
Ġbalance
IR
ĠMo
Ġshowing
oud
Ġmap
Ġstraight
Ġexist
ests
Ġheavy
ĠSur
iber
ĠPower
Ġpred
Ġdaughter
Ġfailure
Ġsurv
ĠBecause
Ġexceed
Ġsit
ĠEnter
Ġcourses
ĠFoundation
ades
Ġvoice
Ġspend
ĠAnt
ĠInternet
Ġitem
Ġgrand
Ġsubm
Ġconfirm
Ġyourself
ĠAut
Ġestimated
irt
Ġinstall
ĠRussian
Ġhomes
Ġtreat
ike
Ġbottom
Ġdefense
Ġweekend
elling
Ġbattle
Ġposted
Ġuseful
Ġcontext
ĠWestern
Ġmiss
Ġreb
Ġonto
aim
ĠWood
ĠLee
Ġmachine
Ġanimals
olution
cc
ares
Ġdark
Ġallowing
Ġaccounts
Ġwa
Ġstress
Ġhar
aur
Ġutil
Ġmanage
Ġfell
ĠChrist
Ġbrain
ĠTown
iders
IA
pri
Ġdriving
hers
Ġ2003
Ġspons
Ġdownload
Ġaut
ald
Ġcomb
Ġcontains
Ġpayments
Ġwish
isc
lines
Ġgoods
ĠGermany
ĠMembers
Ġcrew
rib
ĠEr
Ġbecomes
road
ĠAlex
Ġscheduled
Ġtests
etic
Ġassigned
Ġeducational
Ġfr
usion
ĠEst
Ġbirth
Ġclasses
Ġprec
Ġchart
Ġrelation
Ġdebt
MP
light
Ġexercise
ĠPort
uff
75
Ġwaste
Ġconv
ĠSecurity
bl
Ġflood
Ġpersonnel
Ġjoint
Ġdecl
Ġsmart
)(
Ġsuggested
ĠKn
Ġexactly
Ġinfluence
aces
29
ese
Ġcarbon
ĠMiss
Ġcat
Ġforced
Ġknew
ift
round
Ġtim
Ġdescription
Ġjud
RO
gu
Ġrequested
ano
Ġexpress
ĠTom
ĠBig
Ġden
load
Ġmental
Ġpsych
astic
Ġmaintenance
Ġ200
Ġdistance
Ġsolar
Ġproviders
Ġcomponents
ield
Ġeast
Ġwest
ags
MA
with
ĠLocal
Ġremained
ĠLos
Ġmovie
lying
Ġimm
ĠRock
ients
Ġtheory
Ġscene
Ġviol
Ġowned
alk
Ġreduced
gen
win
Ġdeb
issions
Ġtre
ĠRussia
Ġrequirement
Ġeye
Ġinput
ĠAmazon
Ġoffering
Ġassess
Ġmotor
ĠRet
Ġsort
ĠSee
ĠMP
reat
Ġreplaced
ince
Ġir
den
ĠLake
Ġmentioned
Ġapplicant
Ġgeneration
Ġscheme
Ġmat
ask
Ġcreat
omb
Ġfresh
Ġcounter
Ġarm
Ġcharges
Ġsport
Ġsal
CH
Ġstreet
ruct
ĠKe
Ġquick
Ġoriginally
ĠInvest
Ã¡
,'
oint
Ġselection
ĠUp
Ġinflu
bed
Ġmarkets
Ġve
hood
Ġguidance
Ġlicense
ua
aching
Ġprovider
Ġparagraph
ĠDate
iter
Ġelectronic
ĠEnergy
Ġorganisation
rd
Ġnegative
Ġextent
ĠArmy
Ġexplained
ears
Ġregard
Ġfaculty
ĠBo
ĠGrand
ention
Ġ45
Ġcoverage
yd
part
Ġdetail
Ġinterests
Ġsufficient
Ġmarried
orter
Ġcards
Ġrare
ener
cess
ĠSpe
Ġconcern
Ġmarketing
Ġmulti
ĠDen
eed
ĠIreland
lement
Ġfocused
osed
Ġpen
rist
vis
ĠBre
ĠConf
ĠCur
Ġsolutions
ĠMag
Ġlegislation
itted
ilt
Ġexpand
Ġwid
ould
Ġpromote
Ġblue
ĠAdd
ĠFigure
Ġdelay
Ġpicture
eal
Ġsubst
Ġshut
west
ĠMs
Ġgone
Ġautom
igation
water
place
Ġowners
Ġrail
oper
iment
Ġmagn
Ġha
Ġfiles
ĠArticle
Ġtransl
Ġlocations
ĠBel
Ġessential
Ġprot
ĠList
Ġduties
Ġri
CS
arian
Ġconsistent
urb
Ġvis
ĠEqu
Ġcitizens
ette
Ġtend
Ġpresence
Ġefficient
Ġproperties
Ġobtained
FA
ĠAtt
ĠAuthority
Ġspending
wide
Ġcommitted
Ġvictory
ports
Ġestablish
Ġencourage
not
Ġfinding
ĠAcademy
Ġconsumers
Ġwait
Ġcamera
ĠDespite
like
Ġproceed
org
Ġwall
Ġfe
Ġclaimed
ĠCle
fl
Ġthousands
Ġbroadcast
Ġcampus
Ġclients
Ġrisks
Ġcoin
Ġcompletion
ores
ĠZealand
Ġspecifically
Ġkick
Ġunable
Ġyouth
par
EP
Ġimproved
ĠWeb
ume
Ġchemical
Ġrob
ĠCard
Ġdescribe
Ġconnected
Ġadvis
ason
ston
Ġadministration
ĠAngeles
Ġlearned
Ġelectric
where
ĠElect
Ġbrief
Ġkids
Ġdelivered
Ġremember
hel
active
Ġant
Ġdiscovered
ĠStep
ĠCarl
Ġmatters
Ġphot
met
Ġfindings
ĠHol
Ġpair
ĠAgency
ĠStaff
sel
Ġforest
Ġfiled
Ġvision
Ġinternet
Ġexperiences
Ġgu
ĠSupp
ĠLong
Ġconcerned
ĠBritain
Ġepisode
Ġexternal
Ġmembership
Ġtouch
Ġprov
ause
born
Ġstories
Ġpositions
Ġstorm
Ġvac
Ġframework
Ġenable
Ġdiscussed
Ġaren
Ġmicro
Ġdu
Ġregul
rupt
ĠOper
ĠScotland
Ġelement
ĠCy
ĠAM
ĠHuman
Ġinstitutions
ĠTimes
Ġcertainly
Ġimportance
Ġactiv
Ġpanel
rad
Ġconsent
itable
ĠDem
ĠChicago
Ġdivision
Ġblockchain
irm
Ġhelps
Ġflu
Ġraise
ĠAud
Ġstrategies
ĠSun
Ġguide
ĠAT
erc
Ġholding
Ġeyes
Ġvisual
Ġexamples
Ġplants
orial
Ġreality
list
ĠMat
Ġextended
rent
Ġpartnership
Ġ36
amin
Ġscientists
season
Ġban
onn
gan
Ġeconom
ĠTheir
anges
yle
Ġoccup
Ġtalking
ĠGet
Ġprocessing
ulate
ĠBas
related
Ġgraph
Ġproper
ĠOff
Ġmem
Ġpowerful
ĠTim
ĠForce
ya
Ġsets
point
Ġcombined
Ġcal
Ġaw
Ġcontracts
Ġnovel
ishes
Ġtrip
Ġcandidates
Ġongoing
ĠRev
Ġgun
Ġmissing
ĠFort
LA
Ġbelieved
Ġbrother
ĠConference
Ġaff
Ġsample
ĠLife
Ġfinish
Ġsil
Ġran
Ġrepresentative
asc
ĠAS
Ġplays
Ġbra
Ġeasier
ĠPress
Ġmemory
Ġ1990
Ġrecommended
Ġloan
ĠTechnology
Ġtransition
Ġchanging
Ġregistration
Ġadm
Ġvolume
Ġmostly
Ġphase
ĠDan
Ġperhaps
Ġspring
Ġbond
ĠTop
vert
Ġcells
Ġmag
ĠJack
Ġcultural
Ġcomply
Ġcorner
Ġ2001
ension
Ġtypically
Ġbeat
Ġdog
Ġhelping
ĠBer
cont
ĠEarly
Ġfigures
ĠID
Ġeffectively
Ġcook
Ġtrading
oke
ĠBi
anging
la
Ġoutput
ĠSafety
ĠBefore
Ġstations
Ġdisability
Ġblog
ĠAndroid
Ġsolid
Ġprocedure
Ġ2002
ĠChapter
Ġmig
Ġdomin
bers
ama
Ġce
Ġaudience
Ġ500
Ġguidelines
Ġrain
including
oney
ĠWeek
Ġconsumer
Ġamb
pre
rig
Ġ...
ĠSpace
ĠDar
Ġupdated
rou
Ġopinion
Ġkeeping
Ġwilling
Ġgranted
ĠIsrael
Ġjudge
mail
Ġcrisis
Ġclassroom
Ġseeing
Ġdiv
ĠToday
Ġcollected
ware
Ġph
ĠJapanese
ev
Ġorigin
burg
ĠChar
ĠOnly
Ġimprovement
oration
igh
Ġrot
Ġident
ĠUs
ĠVer
Ġdecide
ĠSign
Ġsupports
Ġwindow
ĠSpec
Ġprospect
ĠChampionship
ĠYoung
Ġimplement
ĠJoe
Ġisland
aches
Ġjump
ament
ĠRoman
',
Ġ|
Ġformal
ĠMil
Ġextremely
Ġcollabor
ĠJan
Ġdocumentation
ĠCheck
Ġdiscl
Ġcounty
Ġpull
ther
ĠLord
rey
Ġanimal
han
ker
Ġremove
Ġfan
Ġrefere
orts
Ġdesignated
ĠImage
Ġguard
Ġdrivers
ĠRepublic
Ġment
Ġpercentage
ĠMember
Ġconsideration
Ġarrived
ction
Ġrelatively
ĠMer
uch
Ġpop
Ġseasons
ĠWho
ician
ĠStat
uated
Ġcolumn
Ġsec
law
Ġcharged
reen
ferences
aint
Ġpip
encies
alls
ĠJim
ĠValley
ĠVis
shire
Ġfixed
ĠAccess
omet
Ġadminist
ords
Ġinvestors
Ġtermin
life
Ġaim
ĠPrime
Ġresolution
rand
ĠAdv
no
ĠParliament
Ġlibrary
ister
Ġexperienced
Ġearth
ĠFollowing
Ġtalent
Ġagent
ĠChildren
Ġquant
Ġdemonst
Ġcoal
Ġcalcul
ĠCost
ĠBest
Ġmix
Ġclinical
Ġresulting
Ġfeed
OC
isher
Ġoperate
ĠIts
outs
Ġsusp
TA
ga
Ġ32
Ġmount
Ġcommitment
ĠBook
ĠOrder
Ġindicate
Ġsignificantly
Ġattended
Ġcategory
illa
Ġphoto
Ġduty
ensions
ĠTerm
Ġcrowd
!"
more
Ġbas
ĠWales
ington
Ġscientific
Ġinstalled
ĠSports
Ġcatch
IG
Ġinstance
Ġsharing
Ġriver
ĠLo
ili
Ġet
ouse
Ġprompt
ĠInf
Ġbehalf
Ġrequests
Ġfounded
Ġdevelopers
ĠTraining
enced
ĠLike
Ġexpenses
Ġloc
Ġshares
very
Ġeval
Ġreform
Ġtournament
Ġchapter
Ġbed
Ġseeking
ĠNOT
Ġinformed
ĠJo
Ġbutton
Ġobjectives
ĠAD
Ġasking
pass
ĠFe
iary
ĠCr
Ġarch
Ġfactor
ĠMedical
Ġyards
Ġglass
ĠGold
ĠKey
ĠSy
ĠFrancisco
ĠToronto
ĠMax
Ġprof
ĠPa
oly
eria
itter
Ġstarts
Ġcloud
They
ĠChair
Ġer
Ġchannel
ups
Ġadvanced
ander
Ġdedicated
ĠIP
ĠMal
Ġprob
ĠVirginia
Ġob
atal
agn
Ġdecades
Ġmaster
Ġswitch
Ġfill
ograph
Ġnav
ried
under
33
Ġtasks
Ġresource
Ġpoll
Ġstick
yst
itute
Ġhealthy
Ġstanding
Ġbanks
olog
ival
Ġaspects
Ġprepare
Ġlose
ĠBro
Ġadvoc
ĠSec
Ġseat
iant
Ġbenef
ĠNorthern
Ġtechnologies
Ġestate
ux
nce
Ġaccident
Ġmode
ĠCP
add
ĠMid
Ġdra
Ġnor
Ġdro
Ġviews
Ġcouldn
Ġdirected
Ġpers
key
aling
ĠMot
Ġemissions
Ġattached
ĠJeff
Ġadv
Ġhappens
Ġoccurred
Ġpool
Ġrecommendations
95
ki
EW
Ġfields
Ġsing
Ġsquare
Ġplus
AF
ĠMedia
ĠAfrican
nel
Ġappearance
ĠFinancial
ĠHam
lude
Ġmatches
Ġstatements
Ġreplace
ada
ĠWal
ita
Ġseconds
put
ĠCap
Ġ<
Ġanti
Ġtwice
Ġinitially
Ġcompetitive
SI
ork
illion
ĠDu
Ġcred
ĠCON
Ġrelating
ned
ola
Ġshape
ipl
Wh
ĠWil
ĠSP
Ġfish
ĠNFL
ctions
Ġunion
mb
ĠThose
ĠShow
Ġmassive
Ġconfidence
ĠRep
ĠField
ruction
kins
Ġ)
Ġaid
rator
Ġphotos
Ġprop
nder
ĠMike
Ġpresentation
Ġ33
Ġadopted
Ġindustrial
ĠOrgan
Ġsleep
su
Ġliter
Ġachieved
ĠEnd
Ġrelationships
inn
Ġbre
Ġserving
Ġcold
Ġportion
Ġcorporate
ervation
Ġwitness
Ġgar
Ġindicated
Ġwouldn
ĠStandard
ĠSenate
urt
Ġwaiting
Ġearned
ĠGrant
Ġparking
ĠPropos
Ġexperts
ĠMa
Ġdollars
inder
Ġchain
cher
Ġguys
Ġengineering
Ġpilot
ĠAppro
get
ĠâĢ¦
Ġappro
rence
Ġnice
alf
ĠHospital
ĠFred
ĠOffic
Ġfamiliar
lock
Ġobjects
Ġbridge
Ġfeeling
ĠGar
isions
Ġpages
ero
Ġlim
Ġpurchased
Ġinstructions
Ġextension
eg
now
lor
aly
Ġarr
ĠBBC
ĠMary
Ġadministrative
UT
por
BA
Ġentitled
ĠDes
Ġcomplaint
Ġunf
IM
ĠAR
Ġdomestic
Ġhy
Ġcombination
II
Ġwrit
ĠEric
ifies
LS
Ġvoc
uro
ĠMars
Ġprem
ĠHon
Ġslightly
ached
ĠRyan
ĠCD
Ġstores
Ġacqu
ĠMel
Ġentity
which
Ġcontest
ighter
65
TV
Ġsan
Ġimplemented
Ġpush
Ġconflict
icial
Ġsquad
Ġlived
Ġhon
Ġfix
Ġsides
ĠParticip
ĠGre
Ġstars
Ġdates
Ġdry
Ġboy
ĠTer
onst
ĠCert
ĠDep
Ġ1999
Ġeduc
ĠBlue
Ġfeatured
Ġtechniques
ĠCarolina
Ġprinciples
Ġtrees
verse
Ġminute
Ġ188
ployment
Ġsigns
ffic
esp
HS
Ġpieces
Ġtree
Ġtun
ounds
Ġequivalent
Ġnumerous
sell
ns
Ġsevere
rim
eral
Ġzone
iable
ĠFree
ĠControl
Ġstuff
rect
Ġ(@
ĠMusic
iate
Ġdig
Ġresponsibilities
ographic
Ġdemonstrate
ensus
iod
ĠMuseum
ĠOld
ĠInstead
come
ĠIS
Ġorders
Ġchar
ĠCH
Ġ1980
ĠRo
ĠTem
Ġsuggests
ĠVol
Ġclar
Ġregister
Ġcreation
Ġincreases
ĠLabor
Ġfemale
Ġnetworks
Ġpotentially
Ġthrow
ĠSpanish
ĠApplication
ĠParis
oles
ĠLearning
Ġcriminal
Ġexpansion
Ġplanet
ayer
rates
ĠFrank
Ġelectricity
Ġign
omp
Ġengage
ona
Ġmyself
Ġputting
IV
Ġbelieves
ĠRam
Ġcalling
ĠSir
ĠExt
sey
Ġdiagn
Ġmail
Ġhum
rations
ĠAssessment
Ġmaybe
level
anged
bert
Ġpun
Ġthank
ading
aming
ĠThree
Ġpackage
Ġhttps
ĠJournal
Ġsections
Ġassum
Ġalongside
Ġspirit
ERS
Ġconsidering
ĠMart
Ġprivacy
Ġdropped
Ġacquired
ĠJustice
ĠEnt
Ġrepresents
ĠBoston
anch
Ġnearby
Ġoutcome
ĠPRO
Ġcopyright
order
ishing
Ġpeak
Ġhol
Ġtank
ĠAbout
ĠLevel
Ġag
ĠFamily
ka
Ġinvent
nes
ĠMinistry
Ġcontained
Ġwinter
Ġalt
Ġhardware
Ġproperly
Ġprotected
ĠMem
Ġreviewed
Ġforth
Ġselling
Ġinstruction
Ġchosen
Ġpermit
Ġarrangements
Ġroles
Ġregularly
ĠMake
Ġerror
Ġill
Ġdest
Ġtruck
ĠKar
ĠDev
ground
Ġfaith
ĠProt
Ġbet
zy
Ġappointment
Ġrein
era
Ġupdates
Ġesc
rian
Ġann
iat
actions
ĠPS
hand
Ġexplore
oice
Ġep
pose
ĠUsing
ĠBra
DS
zen
Ġbelong
Ġstructures
ky
oses
ND
Ġrecovery
Ġintern
most
Ġprincipal
Ġcontribute
Ġidentity
Ġimport
Ġvs
Ġcycle
ube
Ġelimin
Ġcomponent
Ġfaster
Ġbought
ĠAng
Ġinjuries
ĠLabour
ĠWall
enc
Ġtransform
Ġrow
ĠAnn
Ġbattery
Ġsecret
Ġstream
ĠRen
Ġton
ĠArea
Ġav
Ġbringing
ĠBack
ĠFOR
ĠPacific
Ġmonthly
Ġapps
Ġdisp
Ġabsence
37
Ġlabel
ĠClick
ĠEmploy
Ġurban
Ġrepresented
rating
ution
Ġexhib
oph
Ġdifferences
Ġmut
Ġbodies
Ġsnow
Ġtransportation
force
Ġexpressed
ĠExp
ĠPremier
ĠCoast
icians
ĠSer
ĠGames
usive
idence
Ġlosing
ado
ey
Ġdiss
Ġboost
But
Ġsignal
ĠDi
Ġuns
ĠProvide
Ġmetal
Ġ34
Ġillust
UN
Ġdrug
Ġpermanent
eper
Ġfort
Ġhaven
Ġsuccessfully
Ġlargely
Ġhusband
Ġtreated
Ġaltern
bu
Ġpriority
Ġknows
rial
Ġmaintained
Ġfamous
ĠDisc
Ġexperiment
Ġter
ĠLine
Ġartist
Ġder
ala
top
Ġgirl
cript
ĠKorea
Ġefficiency
Ġ1998
ĠBell
Ġwinner
Ġcou
ĠAction
ĠTw
Ġaudit
ĠProtection
Ġcrit
Ġobligations
Ġskin
Ġpurch
Ġprotest
lex
ĠNon
Ġamounts
Ġaccurate
Ġdrink
Ġneg
standing
pect
Ġmort
Ġsim
Ġattendance
ĠPhil
Ġnative
Ġsuffered
Ġprotocol
ini
orth
ĠTitle
ĠSydney
Ġpitch
Ġweak
Ġsecondary
Ġprom
Ġimprovements
ĠUSA
Ġpaying
Ġhouses
ĠBoy
Ġdress
ria
ĠDet
Ġperm
ĠNext
ĠFood
Ġchair
gers
Ġsubsid
ĠFour
Ġdefault
Ġcapable
Ġpract
44
aced
Ġreceipt
Ġdatabase
Ġeat
Ġinsp
Ġcommunications
Ġbehaviour
Ġthanks
augh
Ġexpensive
Ġprint
rack
Ġmonitor
Ġclosely
ucky
state
ĠContact
Ġdecade
ĠArts
Ġcro
lo
ĠBob
Ġnorthern
Ġfavor
do
Ġexcited
ĠPR
Ġbeautiful
Ġfear
anes
ague
she
ĠCommun
awn
imin
cer
What
Ġnut
Ġintegr
Ġrecogn
ĠChristian
Ġdoctor
Ġdefinition
ĠManchester
Ġprohib
ived
Ġang
Ġlimits
Ġedge
ĠChristmas
Ġimmediate
Ġpoly
ĠTri
Ġreduction
Ġsem
ĠAccount
Ġshoot
ager
Ġcontroll
Pro
Ġwarm
Ġstrategic
ĠGlobal
Ġ38
Ġcauses
Ġindic
Ġsurrounding
ĠDown
Ġcho
Ġmus
isters
ĠNavy
ĠJose
Ġinstrument
Ġnurs
Ġremote
Ġborder
Ġserver
Ġtechn
Ġentirely
ĠSen
Ġ300
Ġstrike
ĠChampions
ember
Ġexpectations
ipped
OM
36
icate
Ġevening
night
ĠPri
ĠIII
Ġordered
ety
Ġpolit
Ġ48
Ġdefinitely
Ġdetect
ourn
Ġaccessible
Ġconvers
Ġdepending
Ġregions
38
34
Ġspeech
Ġvessel
real
stream
ĠBuilding
Ġgather
uth
Ġemployer
Ġap
fere
ĠBrexit
Ġscope
www
udd
Ġorganisations
Ġengagement
body
rants
Ġregulatory
Ġadults
Ġhundreds
Ġenhance
Ġcre
ĠUt
Ġpeace
ule
55
Ġemp
ĠStr
Ġleaves
Ġtransactions
oted
Ġ1970
class
itional
vest
Ġprimarily
ĠAssoci
Ġtested
ĠFinal
Ġpet
ENT
Ġsubmission
eting
box
Ġcloser
atively
anda
ĠCross
ĠProduct
Ġcreative
Ġpot
ÃŃ
ĠHave
RS
Ġlinks
ĠPersonal
Ġsuit
Ġlinked
ĠCre
Ġpossibility
Ġprofessor
ĠPM
Ġtaxes
Ġmissed
Ġcaught
Ġrecording
Ġpermission
eries
Ġscoring
Ġvideos
Ġliquid
Ġensuring
Ġpassing
Ġfavorite
EA
Ġapart
ĠFootball
Ġproposals
Ġzero
Th
ĠThrough
ĠCent
Ġoperated
ĠFair
Ġsituations
ĠCredit
Ġshop
Ġmotiv
ĠNov
ĠNumber
Ġreviews
Ġ75
ĠMexico
That
Ġautomatically
zz
Ġencouraged
bury
othes
Ġrenew
ias
Ġlabor
Ġop
aled
kes
Ġmarg
Ġpenalty
Ġjourney
Ġsand
ĠWild
wh
ĠWomen
Ġupper
Ġaffili
vention
Ġheight
run
ude
32
Ġfilled
atter
Ġartists
ems
ĠDirect
ogue
ĠMichigan
Ġfil
Ġ1997
ĠStart
itc
ĠLight
Ġvoting
ĠMad
ĠWin
ĠFox
Ġsouthern
Ġtrail
ĠLeg
Ġdegrees
idential
ingly
enses
ead
ĠRich
ĠPen
Ġawareness
ĠSeries
acher
ĠMS
ota
urd
Ġplastic
oms
Ġoptim
Ġinvolving
Ġvary
gress
Ġdefensive
Ġsummary
ĠJesus
Ġfifth
Ġexcess
ĠAsia
Ġcaption
Ġsum
ĠMeeting
Ġemployed
lev
Ġassoci
Ġsett
ĠVice
velop
ĠMaster
Ġcopies
Ġhotel
Ġwealth
LC
Ġeditor
Ġcontractor
Ġqualified
Ġ37
ĠKim
Ġrelative
Ġamazing
ĠCall
grad
oral
ĠSelect
ĠChild
Ġfail
Ġtopic
Ġengaged
Ġinjured
ĠBet
Ġfrequency
etary
ession
ĠAmericans
Ġbroken
itz
Ġconsultation
Ġshift
ĠItaly
Ġbegins
Ġimpl
Ġadult
equ
Ġfavour
IF
Ġvisitors
iel
Ġbatt
Ġleads
Ġfellow
ĠInit
ĠMajor
Ġcult
Ġshooting
Ġpermitted
Ġregulation
Ġfacing
].
ĠBrazil
Ġletters
Ġtransaction
Ġcontin
Ġsought
ource
Ġseemed
Ġsessions
arily
Ġrandom
Ġenforcement
Ġmor
ĠGP
ĠOhio
Ġnom
Ġcle
Ġversions
ĠAvenue
Ġ189
Ġelections
Ġdepth
Ġhair
Ġped
ĠJud
Ġstopped
ĠCorporation
Ġpupils
ĠTherefore
Ġcollaboration
Ġprofit
Ġends
Ġobserved
Ġobserv
Ġcritic
Ġultimately
Ġfold
Ġintent
ĠGra
Ġpictures
ĠThomas
burgh
ĠParent
edy
Ġfly
Ġclubs
Ġholds
ĠAN
Ġkm
Ġdeploy
ĠRel
ror
Ġapplies
Ġrecru
ĠScottish
Ġcarrying
osis
Ġhyp
Ġattacks
ĠProfessor
Ġcontribution
Ġpractical
care
ĠDist
Ġcompensation
CP
Ġinstallation
AA
Ġwithdraw
ĠSuch
ibly
64
bon
ĠHor
Ġbal
Ġwear
een
Ġupcoming
Ġimpacts
Ġcontinuing
Ġdismiss
Ġsymbol
orship
Ġgrew
Ġtells
cell
Ġpaint
ĠLab
FP
inding
ĠJon
ĠReal
Ġvirtual
Ġtrig
Ġwidely
Ġaddressed
person
Ġdepend
Ġframe
ĠWay
Ġassistant
Ġresidential
itution
%.
Ġownership
Ġobs
Ġdispos
AG
Ġexposure
Ġking
tr
Ġdangerous
Ġcontrols
Ġpattern
ĠFar
Sh
Ġdoubt
arent
Ġdebate
guard
Ġwhatever
Ġperforming
fall
Ġhttp
ĠCam
ĠTour
ĠCrit
Ġarchitect
Ġkill
Ġfulf
ĠPlanning
Ġconfidential
Ġpossibly
Ġsubsequent
ĠSU
fe
Ġshock
tern
ĠPriv
Ġhandle
rant
dom
ccess
omm
ĠKingdom
aser
Ġdeclared
Ġplane
Ġdial
Ġcategories
lim
Ġauthorized
ĠNO
omin
Ġbel
Ġsucceed
ĠDevelop
verage
arks
Ġplayoff
asy
Ġroads
Ġsheet
Ġbelief
Ġpublication
ault
ĠSand
Ġrepeated
Ġcrash
ĠCop
Ġsurve
aining
Ġannouncement
ban
Ġhumans
arp
ruption
wn
ĠProcess
gs
ream
Ġrural
Ġfunded
Ġroof
ĠTax
ĠCommissioner
Ġforecast
Ġhistorical
Ġsongs
Ġtransp
Ġflo
ribute
Ġships
Ġthr
ora
Ġargu
Ġsplit
TR
Ġtransferred
ĠPhys
Ġprogramming
Ġlit
ĠUnit
Ġcontrovers
oming
Ġsy
ĠGuard
Ġgenerated
ĠAL
ĠNASA
ĠLibrary
Ġren
Ġexcellent
ĠAwards
ĠSea
ady
ĠPass
Ġfighting
weight
Ġstudio
Ġhydro
Ġtrend
ĠCivil
ĠPrior
asure
Ġprin
Ġsupplies
Ġnuclear
Ġconven
umn
Ġmanufacturing
Ġbench
Ġ1996
isk
ĠKent
lish
OP
Ġgovernments
Ġskill
Ġtele
ĠMarket
Ġ>
ronic
Ġpreparation
hib
Ġlik
ĠThank
Ġoperational
48
Ġmarked
Ġsubsection
Ġdisabilities
Ġsoil
Ġded
arge
lease
ĠStandards
For
alth
Ġtemporary
Ġcontributions
ĠPhoto
ital
ĠIrish
Ġsuitable
ĠiPhone
Ġsubs
ĠOR
ĠNav
Ġproof
Ġassociation
ĠAdministration
Ġvolunteers
Ġguy
Ġcounsel
uction
Ġrecognition
Ġplatforms
Ġimproving
Ġtargets
ĠItalian
Ġrepe
Ġacting
heast
Ġrespectively
Ġride
Ġrecognized
hem
ĠGary
Ġhabit
Ġreplacement
Ġresponses
ĠLoc
BI
ran
Ġliability
bre
Ġcertificate
ico
Ġcontrast
Ġpowers
free
ĠProfessional
Ġtight
osp
Ġrid
raph
Ġdeleg
Ġpublish
Ġmanaging
Ġbigger
Ġassignment
ĠModel
Ġveget
Ġneighborhood
rell
77
ĠSpain
long
Ġnewly
ĠSouthern
aped
vals
Ġoffices
Ġprime
ĠSmith
uster
Ġgender
Ġfeels
face
ĠSupreme
ĠOl
Ġexpert
hest
Ġmining
Ġrepresentatives
Ġmainly
using
va
spec
ait
Ġult
Ġafternoon
mond
aked
Ġcontrolled
Ġearn
Ġdim
Cl
imb
Ġsqu
Ġ1995
Ġsettings
Ġfirms
31
ordin
Ġsigning
Ġcolleagues
xt
Ġcurriculum
fore
ique
rier
Ġopposition
uls
och
ĠStation
ĠHy
elled
Ġdistributed
ĠResources
Ġamended
ulf
Ġlots
car
Ġofficially
Ġelev
Ġtruly
ĠRepresent
ervative
DP
Ġgraduate
Ġburn
abilities
Ã³
Ġawards
Ġsister
Ġwelcome
ĠSet
Ġdefend
Ġfilms
Ġcancer
Ġadmitted
ĠRights
istics
Ġvan
Ġmessages
urch
Ġ65
ĠDub
Ġstruct
Ġarticles
Ġlatter
ĠFurther
Ġreturning
Ġwatching
ĠSpring
Ġreligious
Ġairport
ocol
imes
ĠHand
Ġperspective
tain
Ġconstructed
Ġparliament
UL
ications
ĠRos
Ġmedium
ĠArch
Ġcas
Ġreturns
Ġfurn
Ġsustainable
ĠTre
Ġwel
ĠDun
ĠRadio
rec
ĠAdminist
ĠKen
Ġflat
ĠCirc
Ġbitcoin
EE
ĠLook
ani
ĠAssembly
No
Ġturns
Ġincorpor
Ġspeaking
ĠGall
rypt
Ġcurrency
Ġparticipating
Ġvotes
Ġbott
ĠCourse
ĠMount
Ġmanufacturer
Ġrating
ille
ologist
Ġsettlement
vey
ĠGeorgia
ters
FL
Ġspaces
awa
Ġsteel
eration
Re
When
lets
Ġadvert
Ġprove
Ġcharacteristics
ĠPack
Ġintegrated
ĠLouis
umin
can
Ġprofessionals
iqu
Ġcausing
comp
Ġdeemed
Ġtruth
uing
cious
Ġinvited
ship
Ã¼
ĠVan
king
And
Ġtough
ĠJosh
Ġcomprehensive
stone
Ġconsists
ĠEnvironmental
Ġbreat
Ġsoft
Ġwriter
ĠOb
apping
Ġdiscussions
ife
ĠHel
Ġincreasingly
Ġcert
agon
ĠProced
Ġrear
Ġtech
Ġpitc
rics
Ġpassengers
Ġwarning
ĠApplic
ĠBroad
ĠThough
Ġreaction
Ġspoke
ĠPres
Ġsupposed
Ġpursuant
Ġsimpl
iam
Ġpra
Ġmillions
Ġentering
Ġtitles
Ġswe
Ġresident
Ġrestaurant
ĠRand
Ġcomput
Ġrich
Ġstands
ĠSchedule
ĠSher
ĠPlace
ĠKnow
arth
Ġweapons
Ġinitiative
Ġaccused
Ġshel
Ġseats
look
ĠDC
istry
erman
ĠMic
Ġworst
Ġtalks
mes
requ
MM
Ġresulted
Ġargument
Ġacknowled
Ġacceler
Ġconsumption
Ġgrounds
Ġrele
Ġprofile
aks
ĠConsult
Ġcontaining
Ġoccurs
Ġfaced
Ġconstruct
Ġconversation
ĠIran
inations
Ġchampion
Ġtrib
esc
inity
ĠBlock
39
Ġasset
ĠOS
Ġnormally
ĠAdam
ĠAlbert
ato
AB
Ġstakeholders
Ġtheme
Ġchampionship
hab
ĠMatt
Ġsequ
Ġlin
ĠAcc
49
net
Ġhasn
Ġresol
Ġcomplaints
Ġagents
ĠRegional
ĠÃ
ĠGen
Ġperiods
ĠPerformance
yp
Ġhunt
Sp
odes
Ġnewspaper
Ġtransm
ĠLy
aper
Ġaudio
Ġillness
Ġreact
ĠLow
Ġabuse
Ġring
Ġalleged
Ġdram
Ġhall
Ġclause
Ġhack
idents
oom
Ġgiant
Ġabs
Ġunc
Ġimmig
abled
ishop
ĠGal
Ġsustain
Ġcy
Ġgenerate
ATE
Ġwarrant
Ġanswers
wan
Ġyounger
Ġexception
adow
anned
acc
Ġgre
ĠWilliams
Ġoffensive
ĠTH
%)
Ġwheel
47
ye
but
Ġrepair
Ġcompete
oma
ĠMult
iration
ĠArab
iny
Ġfashion
ĠProf
ĠWhich
ĠFac
Ġbroke
Ġobjective
Ġfant
gl
ensive
Ġstored
Ġinvolves
Ġlosses
Ġedition
obe
Ġsat
ĠTor
Ġtrained
Ġnone
osh
lyn
Ġretirement
Ġwalking
Ã¶
ĠRoy
Ġcancell
Ġhonor
Ġcompr
Ġappoint
Ġfrequently
Ġcond
Ġdesk
Ġestimates
mm
ati
Ġdistinct
Ġrooms
cling
ĠVill
Ġ1960
otic
olved
ĠAdditional
Ġdam
ĠMiddle
ĠDisney
ĠExpl
ras
Ġgreatest
Ġdin
Ġmagazine
Ġcru
Ġconstant
Ġhopes
making
TH
ĠCC
ifts
Ġstages
Ġminim
Ġinnovation
Ġsitting
ĠCore
Ġexciting
Ġ49
Ġmeasured
Ġtracks
ester
Ġgirls
Ġintroduction
aken
profit
lements
Ġisol
Ġsurgery
Ġstreets
Ġgap
icious
ashed
abor
bec
Ġextensive
rodu
Ġworldwide
Ġdecline
Ġpur
ĠRegist
ridge
Ġmoves
ĠOrig
Ġalloc
Ġelectron
ĠGovernor
ĠOntario
Ġworse
Ġsemester
66
Ġim
Ġbright
Ġattempts
Ġmal
Ġtab
Ġcontribut
ĠRef
ĠLater
Ġscript
ĠType
ĠAuthor
ctor
ĠBattle
ĠMelbourne
yard
Le
ta
ĠIC
ĠPan
Ġsuff
Ġapplicants
Ġadvertising
achment
Ġfraud
Ġcalendar
Ġpromotion
Ġiron
yth
Ġreducing
nam
Ġauthors
Ġsounds
etime
Ġprovince
Ġtemperatures
Ġdri
het
Ġpow
Ġfinance
worth
formation
lers
ĠPerson
ĠScott
Ġaims
ĠLink
Ġretired
ena
Ġextend
ĠTreas
Ġfat
Ġcrime
Ġ150
Ġserves
Ġstudied
Ġestimate
raft
Ġmuseum
iser
ĠContin
ĠThus
Ġvoters
Ġcompar
Ġweekly
rich
Ġhousehold
Ġvaluable
ĠPoint
irst
bal
irty
ĠSenior
Ġintelligence
ĠCS
Ġblow
Ġrailway
Ġwestern
Ġwave
Ġstre
Ġbranch
ĠAnne
Ġpatterns
ĠMrs
ao
OW
ĠPL
78
ĠForest
Ġvice
Ġpal
gn
ĠMeanwhile
ĠNY
Ġrecommend
ĠKong
Ġtopics
Ġsalary
reed
Ġchairman
oints
iated
urance
Ġconcrete
Ġjustice
Ġcommunicate
chool
Ġrub
Ġsubstantial
Ġsubjects
Ġarrested
Ġhappening
UC
ĠVictor
Ġrelief
Ġthick
Ġoperator
Ġindex
Ġfoundation
Ġ55
Ġnarrow
Ġincent
appro
osc
Ġalcohol
Ġsudden
Ġmixed
Ġbike
Ġtaught
ĠDescribe
Ġgained
Ġatmosphere
Ġ39
Is
Ġcart
Ġbag
ĠTur
friend
Ġoccasion
Ġduration
uted
rag
war
Ġacts
ĠAnnual
band
Ġmerg
ĠPartners
ĠSm
ĠHouston
Ġscr
Ġtypical
ĠRay
alled
Ġbreach
hing
Ġstone
ĠBal
ĠBrand
Ġpapers
Ġla
ĠRun
ĠFestival
Ġavailability
Ġcompleting
Ġrecover
ĠWatch
rows
ĠSing
ograp
Ġexpanded
Ġcapture
Ġpromot
199
ĠTake
Ġrising
Ġplenty
Ġsatisfact
Ġdoub
Ġmanagers
ĠCR
Ġicon
ĠSC
ĠBridge
Ġpasses
oster
yer
ĠUk
Ġanalyst
ecess
ĠDue
Ġspect
ĠHong
pen
Ġwalls
ĠBul
Ġ1994
Ġhistoric
Ġarmy
icy
Ġbrings
ĠTele
Ġecosystem
ĠSn
Ġcorrespond
Al
Ġconcent
Ġdestroyed
Ġbeer
Ġmit
Ġinsert
Ġsuspect
Ġconcerning
MENT
Ġprefer
ĠPractice
ĠAdditionally
antly
68
Ġapproaches
Ex
Ġcovers
li
cles
Ġcryptocurrency
ĠWr
Ġquarterback
Ġinspect
ĠFull
ĠLiverpool
Ġsurprise
ĠLittle
ĠFinance
medi
ĠStud
ilities
ĠRod
Ġdeadline
Ġbuying
Ġarms
ĠMus
cul
ĠConnect
Ġpicked
ĠSeattle
Ġmarks
Ġmachines
ĠQueen
Ġsamples
ĠPakistan
Ġmeets
Ġdeveloper
Ġmolec
Ġdisappoint
ĠSubm
ĠLead
Ġfol
ĠPhot
Ġplate
ela
cial
Ġmer
Ġbaby
Ġfalse
Ġmenu
Ġprison
Ġexplains
pton
being
Ġfreedom
icks
ĠMater
ĠNations
Ġinterface
Ġreserv
umes
Ġanim
Ġteach
rome
Ġreve
ĠColorado
fficient
ross
ĠView
lig
ĠRail
Ġunknown
Ġcommit
Ġturning
Ġspokesman
ĠYouTube
ĠDam
Ġiniti
ĠMethod
ĠCro
DC
inson
Ġcontributed
wise
Ġfranchise
flow
ĠBrad
Ġclin
Ġorganized
NA
Ġtelephone
ĠEngineering
ĠON
Ġwins
hold
ĠEvent
Ġworry
ĠEar
ĠJohnson
300
Ġratio
Ġwaters
Ġattorney
01
Ġmale
game
rative
Ġsubsequently
ĠFinally
Ġera
ĠVe
ĠDoes
Ġconcepts
ĠJersey
Ġvoted
Ġworker
Ġinvolvement
icle
Ġknock
ĠColl
ĠRespons
bra
Ġproud
ugby
Ġintention
icit
phy
Ġjudgment
Ġcaptured
Ġlear
Ġcable
Ġmention
enth
Ġyes
Ġfiscal
Ġillegal
ĠLog
Ġafford
itutional
izz
Ġfewer
inch
foot
ĠBall
Ġstable
asters
Ġclosing
Ġcaptain
ĠRose
Ġvisible
ĠJones
icing
Ġcra
Ġscores
ĠAI
ĠCF
Ġemotional
Ġcomparison
Ġdream
ĠFord
ĠProm
Ġclimb
Ġrefused
Ġancient
Ġencoura
Ġens
Ġboat
col
ĠOpt
ĠSource
Ġvast
Ġapplying
ĠPrice
Ġhom
ĠMen
Ġagreements
orders
ĠMill
Ġpetition
Ġfacts
Ġdefeat
ĠChange
Ġroughly
Ġimpossible
Ġess
asp
Ġblocks
ĠTy
Ġvill
ĠHistor
ĠIV
Ġdisapp
Ġdivided
hor
ĠIns
abinet
orrow
ESS
Ġclos
makers
Ġocean
Ġaged
Ġconsum
Ġphones
uating
ĠEastern
Ġemploy
Ġconclusion
Ġcapabilities
Ġ42
Ġ($
Ġproducing
ĠPur
stand
Ġdeck
ĠCN
PR
Ġgall
Ġdescribes
ĠBrook
Ġ1993
inger
Ġlisten
Ġsemi
Ġexposed
ĠLic
Ġlayer
Ġvar
ĠCond
Ġvulnerable
imum
Ġsurf
Ġattending
Ġenh
Ġholiday
EO
Ġpri
Ġdrawn
Ġinvolve
ĠRules
My
Ġdiscretion
ĠObject
Ġ1992
ĠBased
Ġdiscover
charge
Ġannually
Ġreward
67
ĠRest
ĠNBA
Ġoffense
Ġterritory
section
Ġevaluate
uct
Ġdenied
Ġcoaches
Ġcommonly
ĠCapital
anger
Ġsolve
ĠAp
Ġstrongly
ĠTen
Ġarts
Ġmist
iences
Ġconfident
Ġsight
ĠSS
Ġtail
ĠUpon
Ġexamination
Ġuniform
Ġexport
Ġdesigns
Ġnotified
Ġthoughts
Ġegg
Ġyield
Ġdepos
ĠCult
Ġdie
ĠGi
Ġmaintaining
Ġutility
craft
Ġobvious
ĠBase
Ġdoors
Ġimag
ugh
Ġ400
Ġmot
Ġticket
Ġregardless
riting
ded
Ġpulled
ĠImpro
Ar
Ġsmooth
ĠSky
ounter
aud
Ġcapt
ĠQueensland
ibr
tra
Ġcombat
Ġdecent
ĠCommonwealth
Ġcertification
Ġelectrical
Ġinspection
Ġdiverse
ĠCast
ĠNick
ĠAsh
Ġdeclined
ĠAst
mates
PC
Ġhonest
Ġbear
Ġtelling
Ġmountain
85
ĠSummary
Ġcomfortable
Ġ44
ĠGM
Ġtechnique
ĠMinnesota
Ġï
ĠStadium
Ġadequate
Un
onom
ĠOwn
holder
ĠES
Ġindicates
Ġconsequences
bo
VID
App
ĠDiscuss
Ġnecessarily
Ġsick
ĠEth
uate
Ġmunicipal
ĠUC
uit
erved
atures
Ġmine
ĠDNA
Ġ185
Ġmathemat
ĠQuality
Ġremoval
Ġtrains
Ġflying
kin
vy
Ġexplos
Ġemot
igenous
ĠAz
ĠDou
Ġsending
Ġmyst
Ġbasketball
ĠClin
amber
ixt
cons
Ġvolunt
ĠWorking
ĠKeep
Ġrestrictions
Ġacceptable
Ġlect
Ġnotify
ĠDean
Ġpremises
Ġhandling
onic
ĠConst
Ġconnections
Ġrelations
ĠNHS
Ġcuts
bar
ĠSystems
ither
ricket
Ġswim
Ġphotograph
Ġdiscount
Ġexerc
Ġjoining
05
ĠSil
Ġconcluded
Ġcraft
ĠNHL
ĠStock
Ġreaching
Ġmanufact
Ġacquisition
Ġhorse
ĠPub
ĠMayor
Ġdispute
DF
Ġnoise
Ġranked
Ġexpertise
ĠFC
ura
Ġheavily
Ġgift
ĠAffairs
Ġexists
Ġpos
owned
ĠSchools
Ġkid
nic
Ġposts
Ġflag
Ġending
Ġodd
wing
.]
Ġusual
aving
Ġhero
Ġcalculated
ĠEX
ĠDaniel
Ġproceedings
ĠVA
Ġjurisdiction
New
Ġsyn
ignment
Ġhel
Ġdetermination
wo
").
ĠSingapore
Ġmob
Ġadvent
ĠNorm
Ġstadium
Ġfarmers
Ġassessed
aves
Ġreportedly
eller
rict
aul
ĠDigital
ĠMcC
ĠCommer
ador
coming
Ġsymptoms
apes
ĠBeach
Ġmill
Ġut
Ġtom
Ġusage
Ġmir
Ġgrown
Pl
Ġarri
Ġpolitics
ĠLtd
ĠEll
Ġdiversity
Ġ64
Ġfacilitate
ĠKh
Ġlanguages
Ġclock
ĠWH
ĠDescription
erate
Ġdogs
Ġdisclosure
Ġexplanation
Ġwider
Ġachievement
Ġchallenging
Ġtickets
igate
Ġcomputers
da
ounded
UD
Ġresponded
ĠChairman
ĠRh
Ġproved
Ġinterpret
Ġcoffee
gage
ĠCompet
ĠAirport
Ġdiscipl
Ġassessments
Ġchannels
Ġuncertain
ĠEmail
Ġfounder
Ġpassenger
Ġmess
Ġrepresenting
ĠInstagram
ittees
Ġassignments
ĠLiber
Ġadds
Ġexistence
obby
Ġroster
ĠTotal
ĠBox
Ġmechanism
Ġtransmission
how
ledge
EF
Ġmodified
OD
just
ĠDirectors
Ġcolon
Ġvisited
So
eer
Ġinteract
Ġarchitecture
ĠCareer
ĠOnline
acks
ĠShort
Ġfrequ
ĠEngine
Ġproducer
rief
ĠEp
ĠRecords
irk
Ġrequiring
Ġtargeted
month
Ġfalling
duction
Ġformation
Ġbro
Ġ52
ĠTechnical
ĠStudy
ĠRequirements
iral
Ġdealing
Ġsumm
Ġvolunteer
ĠOregon
lights
Ġoutstanding
ĠGener
Ġsavings
bro
ĠCompl
An
Ġguess
pay
mar
Ġappropri
iest
Ġpace
roy
Ġlaid
Ġroutine
Ġaer
Ġextreme
dri
Ġchoices
ĠCatholic
Ġunderstood
Ġinspired
Ġsurround
Ġidentification
ĠWalk
aration
ĠLove
Ġaggress
Ġdestroy
Ġke
Ġdriven
ĠAmong
Ġeld
itten
ĠVR
Ġcourts
Ġcup
"),
ceived
aters
ĠSanta
after
Ġfrust
Ġmere
Ġdiam
ĠJeffrey
Ġopposed
ĠConsider
Ġliterature
Ġlie
Ġspin
ĠPot
Ġcrypto
ums
iana
ĠStudies
Ġmarriage
ĠKorean
Ġopposite
Ġdrawing
Ġfre
ĠRight
ĠMur
Ġtables
Ġlicence
Ġreserve
Ġcovering
ĠRoss
Ġheads
Ġeastern
Ġpointed
Ġsequence
des
chie
Ġconservation
otted
TER
Ġlists
Ġintervention
Ġoutlined
ITY
ĠPennsylvania
Ġlowest
Ġdesire
Ġsentence
ilit
ĠThanks
Ġimpressive
ĠLive
Ġsynt
ĠQual
Ġgaming
Ġsensitive
ĠRick
Ġfinds
Ġinvestments
ocket
Ġ1991
Ġvictim
Ġannounce
Ġlights
Ġexact
Ġinnovative
TE
Ġpassion
Ġpan
rep
Ġherself
ĠJames
Ġdefence
urities
Ġdisplayed
Ġwearing
ĠAust
uan
uter
ĠPA
ĠStill
Ġpump
Ġracing
comm
Ġideal
Ġaccounting
Ġwet
ila
urity
Ġpubl
ĠDer
rix
GB
Ġcoaching
ĠEconomic
Ġinitiatives
ogn
Ġmm
Ġsecretary
Ġrepresentation
ĠWars
Ġvital
olid
ĠSeveral
Ġmand
ĠStre
ĠPresent
Ġcutting
ĠPage
Ġarrest
Ġsatellite
oured
ĠPo
Ġbaseball
ĠKenneth
69
ĠEffect
ĠJean
Ġstatistics
ĠArizona
Ġhighlight
Ġfle
ĠPH
iced
Ġrejected
--
Ġpreferred
Ġundertaken
Ġviolation
Ġappearances
hav
Ġorganiz
ĠCreek
angers
Ġstrugg
Ġfairly
ĠAcademic
VE
lished
42
Ġvirus
Ġstrict
olar
Ġorient
Ġpublicly
Ġloans
earing
Ġhelpful
MC
aska
phone
Ġgrants
ĠPhilipp
Ġstruck
Ġsuspended
ĠPhiladelphia
ĠTel
illy
ĠJoseph
Ġchose
Ġfaces
ĠHay
Ġ1989
Ġenroll
oking
hetic
Ġemployers
zing
Ġroy
ĠWind
Ġrig
Ġmusical
alo
Ġcod
Ġbat
organ
ĠFre
Ġloved
ĠAssist
Ġpossession
Ġexch
spe
Ġborrow
Ġpreced
ĠScient
Ġcredits
Ġevolution
Ġax
ributes
%,
ĠDocument
Ġhundred
Ġunlikely
Ġplug
Ġremind
Ġcontinuous
Ġaddresses
ĠHard
Ġrecre
Ġinches
Ġalter
Ġexplo
argo
Ġexclusive
Ġtouchdown
Ġabsolutely
Ġpreparing
gin
Ġdiscovery
pat
ocation
Ġintegration
umer
ĠGuide
Ġreserves
ĠMah
ĠTesla
stract
79
gener
ĠCase
ĠUr
ĠColumbia
ĠHart
raction
Ġdemonstrated
ĠKel
Ġresp
Ġteen
Ġclassic
Ġprinciple
uzz
ĠYet
ĠFarm
Ġargued
rencies
Ġnum
ĠDemocr
Ġstood
ordination
ĠCook
chers
chn
hour
dle
ĠGreek
lick
Ġaspect
ĠLi
ĠConstruction
Ġpod
ĠBudget
ĠTony
Ġproportion
ĠConc
Ġshots
ĠAssistant
ĠBowl
ME
ads
omes
Ġreferences
ĠTok
Ġserv
osa
Ġpremium
Ġchecks
Ġwage
Ġdecre
iversity
Ġtall
ĠBang
ĠDaily
ĠABC
ĠQuestion
46
Ġcarefully
roup
ĠAgain
ĠInterest
new
Ġentities
Ġ()
ĠFA
Ġhealthcare
ĠFact
ĠHa
ĠLeon
ples
Ġorganis
Ġdirectors
Ġovers
Ġboss
Ġfactory
Ġcrucial
Ġaver
ĠBureau
encing
âĢ
ĠIllinois
ĠEuro
Ġguarantee
rimination
ĠEnvironment
Ġrespective
Ġ1950
enders
ĠDemocratic
Ġsuspension
Ġadoption
ĠRisk
icted
Ġneither
ĠTimothy
Ġcircuit
Ġmanual
Ġmeas
ez
ĠArm
Ġvacc
yers
Ġ{
Ġshopping
Ġwww
Ġdeals
Ġhoping
Ġeating
Ġruling
isa
ĠOrganization
holders
Ġwing
Ġyellow
visory
Ġstretch
Ġpollution
ingham
Ġdance
ĠAG
teen
Ġmic
Ġshortly
ĠDetroit
ĠMartin
PP
Ġtweet
Our
Ġhosted
Ġrecy
Ġgovernor
Ġplacement
ĠHo
otes
Ġsignature
Ġdamaged
gar
Ġseriously
Ġwindows
Ġliber
Ġanywhere
ĠLim
ĠMarc
Ġwed
Ġrapidly
Ġaimed
ache
ĠRegulations
Ġraising
Ġresistance
Ġimplementing
Ġcrack
ĠStatement
Ġtow
fr
Ġvariable
ĠPop
Ġtact
ĠSamsung
rett
Ġlandscape
ĠExper
Ġresidence
ĠEgypt
Ġtower
van
Ġquiet
Ġboys
76
Ġagricultural
host
lementary
ĠRepublican
ĠSport
ĠAddress
Ġentrance
iency
ogether
ults
Ġadvised
Ġgrid
ibilities
Ġactor
going
iner
Hz
Ġremov
Ġopp
Ġexecut
sen
ava
usions
Ġscenario
ĠAf
88
Ġfundamental
ellow
ĠFle
Ġseed
Ġattempted
Ġroutes
Ġexpression
Ġwor
ĠMA
hire
Ġvictims
sement
ĠSmall
41
Ġtwenty
ĠIndividual
Ġindustries
ĠAsian
ĠTurn
Ġrum
Ġmo
ivid
Ġforg
ĠOak
ĠShould
Ġagenda
Ġidentifying
Ġtrouble
Ġpropos
eck
Ġcreates
ĠIndust
Ġupload
Ġrely
ĠEconom
Ġsole
ĠVi
Ġsty
ĠNight
ĠLuc
Ġec
ĠSom
Ġtied
ĠEng
Ġpromoted
iability
Ġlands
ĠAppendix
Ġsexual
Ġdowntown
BM
ĠId
phones
ĠHaving
ĠWord
ĠJuan
ĠOlymp
Ġsac
ĠHaw
ĠGrade
Ġpure
ĠDutch
away
Ġmerch
oto
Ġcontinu
ĠEmergency
Ġabsor
Ġsky
Ġoccas
ĠAnalysis
],
ĠâĤ¬
enant
ĠRub
Ġcertified
ĠUlt
ĠJr
Ġemphas
ĠSummer
Ġexit
Ġguarant
Ġaffordable
abet
rons
Ġdisaster
ART
iveness
Ġhired
ĠJacob
HA
Ġexpense
Ġtracking
Ġvisits
Ġdoctors
Ġfault
ira
Ġuniversities
ĠRonald
Ġdefeated
Ġpoverty
ĠTro
Ġtransit
Ġsubstant
known
Ġtroops
Ġhits
Ġwebsites
Ġgovern
ĠCho
ector
Ġrefers
uez
Ġapparently
ĠCustomer
ĠUpdate
Ġconsecutive
Ġforget
Ġobviously
Ġgrass
Ġhouseholds
Ġfired
Ġnotification
incial
break
Ġeffectiveness
All
Ġsilver
ĠCommunications
rison
ubs
elect
ĠInv
graduate
Ġincorporated
Ġrecognize
SE
istent
ĠMiller
ĠLegisl
Sc
RI
ĠDallas
Ġtie
inem
fast
Ġassume
star
ĠOtt
Ġfac
inals
EMENT
ĠCat
Ġrose
Ġfestival
bour
Ġtor
Ġerrors
ĠSant
br
Ġnegotiations
Ġmodule
Ġactively
Ġunp
Ġastron
Ġkinds
Ġhoriz
sect
ĠSix
ologists
Ġlease
ĠIce
Ġupgrade
ĠWilliam
ĠSem
ĠAge
Ġsoldiers
ĠOcean
Ġchampions
atically
ĠExchange
adem
ĠFind
ago
PD
ĠMun
Ġpatent
ĠFilm
Ġmouth
ikes
Ġspecialist
olis
ĠSat
arden
Ġparticipant
Ġdefine
Ġfeaturing
Ġsees
ĠYouth
Ġenthus
ĠInsurance
Ġvirt
Ġphilosoph
DI
Ġincl
alty
ĠFall
Ġrecommendation
Ġestablishment
Ġvisiting
Ġlicensed
Ġmaps
ĠMcc
Ġtut
ĠBru
Ġreliable
ĠDavis
ĠRad
sm
Ġequity
Ġdomain
Ġstring
Ġaccuracy
Ġbusy
ership
utions
Ġslowly
ĠAndrew
azz
ĠJustin
Ġcharity
ĠStanley
QU
Ġhazard
Ġrival
ĠConstitution
Ġenjoyed
Ġpractition
On
Ġoperators
Ġneighb
Ġintroduce
ipe
Ġwarned
Ġheading
Ġinstruments
Ġlanding
Ġwelfare
irect
inct
Ġfriendly
eman
Ġsurprising
una
Ġdefin
ighth
SC
Os
pet
ĠRs
Ġflash
Ġprominent
ĠGolden
ĠFollow
ca
ĠTrib
Ġ41
Ġhop
Ġdepartments
Ġcooperation
Ġdemands
Ġpic
venues
icon
Ġlessons
Ġsevent
gest
Ġretain
ĠFaculty
Ġlunch
front
osition
aded
Ġbreaking
ĠMiami
ĠFI
author
Ġarrive
Ġsad
Ġraces
ĠChall
Ġparallel
aug
Ġviolence
isted
ĠMatthew
rog
bi
Ġ47
Ġreputation
ople
bur
Ġagrees
ĠOlympic
erk
ĠTam
Ġcomprom
ĠAsk
Ġphenomen
ĠAmend
62
Ġarrival
ateg
Ġindeed
Ġcommunic
brid
case
ĠRout
Ġsym
Ġinstructor
eals
Ġacid
Ġarbit
Ġauthent
ĠPhone
Ġcolour
ĠSus
ĠDiego
Ġdeaths
Ġcooper
Ġengines
ĠMedic
leted
61
ĠBern
Ġgro
Ġtermination
Ġtrou
Ġreasonably
Ġhole
avy
Ġstead
GA
Ġentreprene
ĠSche
Ġsuffering
ĠCorn
asts
ĠAlan
Ġentertainment
Ġstim
Ġweapon
Ġdistricts
Ġtro
ĠGiven
Ġsaved
Ġdollar
Ġsomewhat
ĠDavid
Ġhomeless
iture
43
ĠHold
ĠUnivers
Ġdeterm
ĠNotice
print
Â°
Ġinterviews
icated
Ġsixth
IST
Ġrestrict
ĠIntern
Ġpounds
ĠMassachusetts
Ġinstruct
Ġportfolio
Ġremark
Ġfruit
ĠTechn
__
ĠBC
Ġpeer
Ġhor
wich
gy
Ġinterior
ĠMail
Ġprecise
Ġadj
DR
Ġfalls
Ġsupporters
oyd
ĠVideo
63
Ġpopulations
Ġsubsc
ĠAtlantic
Ġbomb
ĠAntonio
alties
ĠOct
ĠRog
Ġperformances
Ġelsewhere
istical
Ph
Ġdipl
Ġessentially
ologies
Ġmovies
tical
Ġplot
400
itative
Ġfacilit
Ġmel
Ġdetermining
ĠLinux
edia
Ġpromoting
fect
orne
ounder
Ġhistor
Ġthin
ocr
Ġreveal
Ġ120
har
Ġministry
Ġreject
ĠInstruct
Ġyesterday
ĠDO
Ġparish
Ġaggreg
Ġinvestigate
Ġguest
ĠStan
ĠBull
Ġinteraction
mont
ĠDonald
Ġpil
Ġundert
BO
Ġrapid
Ġlawyer
How
Ġalarm
Ġtimely
ĠHousing
Ġstronger
ĠRecord
Ġapprove
Ġarrangement
Ġcameras
ulating
ĠSciences
ĠJay
Ġlies
Ġeligibility
ĠCurrent
Ġprize
vere
Ġ180
urse
ĠAngel
ĠSav
Ġpossess
greg
ĠMountain
commun
Ġdamages
ĠSurvey
ĠMotor
uous
ĠEC
odge
rary
ĠCru
ogen
secut
Ġdistingu
Ġchances
anna
Ġhurt
ĠVen
nov
nest
ĠWorks
Ġspell
ĠRequ
Ġunusual
ivities
luded
oys
Ġdensity
outh
Ġobst
Ġfunctional
Ġreceives
Ġ1987
Ġvi
Ġsatisf
Ġfleet
ails
Ġenemy
Ġgarden
ĠPsych
Ġsegment
ĠJul
ailed
Ġrevised
ĠGeorge
Ġspe
ĠWhit
Ġprogrammes
race
ĠiOS
Ġtoken
Ġsupervision
ĠHunt
conn
Ġnob
Ġobligation
Ġshell
Ġdiff
ĠThom
ĠIndependent
Ġourselves
ĠMichael
Ġstreaming
Ġord
Ġnoticed
ext
Ġvent
Ġbow
Ġmoments
iger
Ġwhe
To
Ġmeat
Ġsettled
Ġaccred
Ġguests
ucks
Ġcenters
ĠBry
Ġrush
ĠHighway
Ġiss
Ġpushed
ĠRule
Ġrefuge
Ġobservations
ĠCa
Ġamendment
ĠTech
visor
ificial
Ġengineer
ĠAnthony
aze
Ġparticipated
ĠMass
ipment
ĠEs
Ġtap
Ġ1988
tle
such
ĠPrincipal
ĠIntroduction
inking
Ġcompat
Ġtheore
ĠTransport
Ġmandatory
Ġknowing
Ġstake
Ġcapability
ĠSquare
Ġresearc
Ġrescue
ĠTask
72
ĠKansas
Ġveteran
Ġapprec
ko
Ġbirds
Ġsugar
ĠCL
Ġimpro
Ġoperates
Ġfoss
Ġsche
thing
ĠHig
Ġworkforce
hi
acter
Ġlesson
crib
ĠTravel
ifier
Ġpromise
ĠLind
leb
Ġtiny
Ġgrades
Ġfiling
Ġgovernance
achel
Ġreaders
Ġdevelopments
Ġaccommodation
Ġtherm
ĠTransportation
ĠPrimary
Ġturb
Ġ""
Ġprescribed
ĠPolit
upp
ĠStore
icles
chain
Ġindependence
Ġimpress
ĠPers
Ġpension
called
Ġinclusion
ĠSar
ĠSteven
ĠConvention
Ġaside
ĠTrade
hell
ensity
Ġdifficulty
ĠCount
Ġ95
cut
Ġcorresponding
Ġtackle
Ġ85
iano
ĠCharles
Ġsatisfied
Ġimagine
ĠStrateg
Ġboxes
ĠGrad
semb
Ġdisabled
ressed
Ġregist
Ġcited
itud
Ġexempt
Ġdepends
abling
Ġdecrease
ORE
ĠSimilar
Ġsurprised
iot
ĠDead
itzer
Ġaccomplish
Ġunt
inter
ĠXbox
Ġmanufacturers
bn
apse
Ġtag
Ġspl
Ġwine
Ġ1986
Ġlaboratory
fact
Ġprinted
ipping
Ġmedicine
ĠSa
Ġabilities
ella
Man
Ġdynamic
ĠGonz
Ġunem
Ġtack
leges
Ġbrowser
Ġbills
ĠDelhi
Ġcolors
ĠGil
ĠSECTION
ĠGro
ĠReading
ĠReserve
PM
Ġpursu
Ġequation
RL
ĠArsenal
ĠVancouver
Ġsurvive
Ġtrends
site
Star
ĠChannel
ĠBackground
Ġ43
akh
ĠBid
ropical
ĠHu
luding
Ġassumed
Ġlegit
Ġheadquarters
Ġgear
ĠSite
bound
Ġuniverse
ĠFed
Ġprivile
ĠSH
ĠHawai
fire
Ġneighbour
ĠLA
Ġworkplace
Ġcheap
Ġheaded
ĠPortug
Ġ**
Ġevac
ĠIntegr
Ġvenue
Ġintegrity
Ġescape
ken
range
89
Ġresist
ĠOs
Ġconfiguration
vement
ĠHas
ĠBa
Ġease
heim
ĠFurthermore
Ġguitar
Ġfishing
aka
ĠPhill
Ġsweet
Ġbath
Ġsalt
ĠRelated
Ġdependent
ĠRES
iro
ragon
ĠMission
Ġstrengthen
Ġanx
Ġvariables
aired
ĠEag
ĠAltern
ĠRequest
Ġpm
ĠWithin
ĠJudge
Ġdocumented
rators
Ġdies
Ġcomfort
page
Ġsched
osm
Ġdrinking
rical
Ġpriorities
ĠWhether
ĠWard
Ġsectors
Ġflav
Ġflexible
Ġdesired
ĠExplain
Ġcust
Ġ1984
ĠLess
oices
ĠStephen
Ġpersonally
Ġphr
Ġathlet
ĠEV
Ġparameters
lud
Ġsignals
Ġruled
Ġstudying
ĠChristopher
ĠCoordinator
Ġadopt
ĠPrinc
ĠThird
ĠRailway
Ġempty
ĠAtlanta
ĠRaymond
UST
ĠWhe
Ġcompare
Ġgate
ĠMir
ĠDV
ĠEvaluation
ĠDor
Ġkilomet
fund
ĠRecomm
800
Ġconj
Ġhockey
Ġscreens
Ġsen
ĠCA
Ġassembly
ĠObs
Ġhospitals
antic
gram
Ġmile
ba
Ġcontacted
Ġenvironments
Ġtherapy
ĠFive
Ġdisrupt
Ġsubcontract
Ġassault
ogy
Ġdifficulties
ribut
resent
ĠHot
ĠLew
Ġextract
RP
that
Ġbeach
Ġgal
Bl
Ġcarrier
ixture
ctic
Ġrebu
ixed
Ġtalked
oad
liminary
ĠForeign
Ġenrolled
ĠSeason
Te
ĠRichard
Ġadverse
Ġbanking
Ġmayor
ĠBrian
ĠStory
Ġanticipated
ceptions
oning
elve
ĠMarine
Ġterr
Ġcop
olph
Ġresign
twitter
ĠBelg
cho
rum
71
Ġlegisl
Ġresolve
ĠOxford
Ġdefendant
At
Ġemerging
onald
Ġredu
ĠRegulation
Ġconverted
Ġ1985
Ġcatal
Ġceremony
earch
Ġspr
Ġblank
novation
Ġpharm
86
agers
ĠWel
Ġpainting
rab
bles
ĠCra
rition
Ġweren
urrent
Ġtrick
Ġrestricted
eness
oting
Ġ250
Ġstatutory
rip
Ġdecor
def
Ġgrab
ĠIdent
erly
Ġnominated
Ġthorough
Ġwireless
pling
Ġclothing
ih
ifted
umber
ĠAdm
Ġcomposed
ĠMonitor
ĠEdward
Ġshipping
ĠMcG
ĠFel
ori
ĠSony
ardo
Ġblind
Ġingred
ĠExpress
Ġconsequ
scale
Ġincidents
Ġfilter
Ġser
ĠQuestions
ĠMach
viously
eties
ĠAgricult
Ġdelivering
WS
ĠDid
Ġunn
Ġtemplate
ĠTreat
Ġlawsuit
Ġdistribut
Ġmeters
high
ĠNetflix
Ġsecured
ĠNever
Ġequipped
ĠDave
Ġincredible
Ġcodes
Ġnotable
emic
obile
gets
Ġboot
Ġacceptance
Ġpricing
tes
ĠCas
ĠWithout
Ġveter
Ġlegend
dd
oked
Ġbare
ĠRus
Ġscan
Ġexecution
Ġstating
ĠSon
ĠCountry
Ġdisag
ican
ali
ĠiP
ĠGovern
ĠGreg
Ġresid
ĠSmart
59
ĠTit
bel
ĠProperty
ĠJob
ĠIr
Ġguns
osure
Ġlabour
Ġsupplied
Ġlikes
habilitation
Ġflights
Ġdust
raine
leton
Ġwhilst
Ġchem
74
Ġexhaust
ĠCustom
vern
Ġadjacent
gov
zed
sole
ĠSqu
ĠReuters
ĠRodrig
ĠBalt
Ġbatter
ailable
ĠSweden
Be
ĠBec
ĠLarry
Ġsed
Ġnin
ĠUnfortunately
Ġmeasurement
amps
Ġcyber
Ġoverseas
Ġreceiver
Ġlimitations
Ġfails
eping
yo
Ġrealize
ĠMcD
Ġom
Ġtradition
Ġrevolution
ĠProvider
ĠNathan
Ġpassword
urricane
Ġalert
ĠHoly
ĠPlus
Ġske
ateral
rosc
Ġtox
Ġcompeting
ĠFuture
Ġgoverning
ĠCommon
Ġmask
Ġopponent
Ġcycl
Ġdiet
walk
ĠGregory
ĠEss
illance
Ġwaves
Ġproven
ĠPict
otype
Ġ46
Ġfailing
ĠJason
fort
oen
abil
aints
dy
wick
Ġplaintiff
Ġmurder
ĠNSW
Ġcalc
ĠWisconsin
Ġbasically
ja
Ġdual
Ġindirect
Ġkitchen
ĠBand
ĠEduc
ĠTay
Ġrealized
oman
ĠRober
from
73
olt
Ġbarriers
Ġharder
ĠSound
Ġju
Ġjunior
Ġconducting
ĠCurrently
ĠRegister
Ġunderlying
Ġallegations
ji
uations
ĠCow
Ġdirections
ouch
ĠGalaxy
gent
mate
Ġallocated
inction
Ġsmartphone
ĠCaptain
Ġstruggle
ĠMetro
resh
ĠLatin
Ġventure
ĠJackson
aza
ĠSilver
arency
Ġprev
imens
Ġangle
ĠChem
emption
Ġbrew
Ġsubstance
ĠBrew
ĠRobert
icity
ĠKevin
Ġqualifications
Ġnations
Ġconstantly
spect
Ġretained
ĠDrive
action
Ġautonom
Ġlighting
Ġimposed
Ġstruggling
ictions
Ġderived
ĠHal
thereum
ĠTheatre
othing
Ġ51
eding
American
Ġabandoned
ĠSA
Ġqualify
Ġpul
Ġexpenditure
ĠBow
Ġprofession
Äģ
ĠCorps
Ġhire
Ġanalys
party
vity
ĠFil
ĠSD
Ġspokesperson
ielder
Ġearnings
ties
Ġdrama
ĠBad
Ġstability
ushed
Ġbull
ĠAlabama
ĠAk
ĠStra
Ġlake
Ġversus
ĠMobile
wa
vant
Ġholder
olas
umps
ĠPract
Ġmilk
ĠOperations
Ġsinger
Ġorganic
achers
Ġmoon
ĠRa
ourage
Ġworkshop
tery
ĠGirl
ribution
lt
illo
ĠTodd
ĠLanguage
oir
Ġviewed
uates
ĠLat
Ġwalked
Ġpled
Ġconcentration
Ġdanger
ĠExperience
ouncill
Ġfocusing
Ġsex
Ġcorrectly
ĠMaryland
uma
rem
Ġoxygen
ĠCleveland
Ġpursue
Ġcleaning
ĠStrategy
Ġepisodes
sis
Ġrestaurants
).]
ĠBenef
uries
vi
Ġenterprise
ĠConn
isting
Ġexplicit
Ġthinks
Ġlistening
anche
Ġscenes
ĠNotes
mann
Ġprotein
Ġenables
Ġpanels
ĠNintendo
world
ĠCoin
Ġthreshold
ĠIss
Ġheritage
Ġcircle
charg
esides
ĠProgramme
EX
Ġagriculture
ĠBron
serv
ĠLiberal
ĠVeter
irc
ĠLear
Ġspecifications
Ġlisting
Ġunivers
acle
Ġkilling
ĠTal
rection
ĠRu
ulpt
ĠNich
OU
name
enge
Ġhighway
Ġbegun
Ġaccompanied
Ġclaiming
allet
tainment
ĠLane
Ġburied
stein
Ġlegislative
ĠNatural
Ġkeeps
Ġwond
ĠIndustry
closure
wered
ĠHeart
Ġspectrum
----
ented
Ġbrands
Ġcriticism
aturally
omy
bing
ĠHeritage
ĠRelations
ello
Ġconsistently
Ġtips
ĠDefense
Ġapparent
ĠGree
Ġrat
Ġfro
ĠHD
amples
ĠLimited
expected
Ġtokens
fts
Ġintellectual
Ġundertake
Ġdeposit
Ġboards
Ġrh
Ġrenewable
Ġapartment
arsh
Ġproducers
ĠAlf
original
FS
ĠAff
minute
usal
TING
ĠVolunt
ĠConduct
ht
oil
Ġgraduated
ĠJer
arn
Ġassign
Ġneutral
Ġmechanical
Ġlogo
Ġdestination
Ġfif
Ġgross
ĠBat
Ġtaste
ĠUber
ĠEve
Ġmechan
ocracy
Ġsupervisor
ĠEarl
Ġele
ĠComplete
advant
Ġfinishing
rystal
She
Ġadmission
ĠDraft
apers
Ġswitc
fers
ĠLas
Ġguilty
itiz
Ġsoccer
Ã¤
etch
ockey
Ġty
xide
Ġwages
mouth
ĠBon
Ġaccomp
Ġmath
ringe
ĠMov
ĠUser
Ġmechanisms
ĠExample
Ġrefund
Ġgraphics
ĠMoh
qual
Ġnegoti
Ġcommence
Ġpromised
Ġrounds
ĠServer
ĠDeputy
oard
Ġpushing
Ġcomposition
Ġmarine
Ġrobot
ĠArchitect
you
olic
ĠJu
Ġinflation
Ġintrodu
ulations
ĠHotel
Ġrecruitment
wr
ĠLl
ĠPanel
ief
ĠPlayer
Ġflows
Ġmini
Ġlov
prof
Ġcogn
Ġfra
Ġdiscipline
02
Ġfootage
Ġburden
olen
Ġattach
tains
Ġfinger
ĠML
ĠIowa
Ġeverybody
Ġengineers
Ġsignificance
ĠNic
Ġroot
Ġsaving
Ġautomatic
Ġnarrative
Ġargue
Ġbrothers
ublic
Ġconflic
Ġwonder
Ġtowns
Ġcharging
ĠIndiana
ĠAthlet
Ġputs
ĠArgent
aste
Ġreleases
ĠDeb
Ġoverwhel
Ġfed
Ġtrips
Ġgreatly
Ġ198
ĠRome
ĠDetails
ashes
Ġrese
enez
03
Ġru
ength
adesh
ĠIntel
Ġacknowledge
oz
ĠESPN
arr
Ġwatched
ĠOrd
ĠOklahoma
sters
ogs
arant
De
TO
Ġdisplays
Ġconstitu
ĠIdentify
ilitary
ĠHollywood
ventions
ĠHan
eek
nings
Ġvertical
Ġsupplement
09
ĠReports
ss
aine
po
Ġlift
aping
Ġalgorithm
Ġ1983
Ġscen
raising
ĠSelf
Ġanonym
mod
Ġsust
woman
Ġmaxim
Ġcelebrate
ĠMoon
Ġaccum
omot
Ġincurred
Ġspeaker
Ġconcert
Ġexped
Ġparticles
through
AND
Ġunsu
Ġgenetic
athan
600
ĠACC
Ġimplications
Ġemerged
ĠDri
ĠIndones
ĠImplement
Ġsolely
Ġthousand
week
ĠEmpire
Ġgathered
CR
Ġtitled
ĠMess
ĠEmployment
elle
empt
sequ
Ġdeputy
owered
ĠGarcia
Ġinterpretation
istan
imp
Ġthreats
endors
Ġcorporation
Ġposs
ĠNetherlands
Ġestablishing
ĠCastle
ennis
ĠIslam
BE
ĠEM
reach
Ġhitting
plus
ĠSoftware
ĠCreate
ĠMand
Ġfunctionality
ĠLyn
Ġtiss
herent
Ġoldest
ĠTrack
OUR
overy
Ġ59
Ġlicens
ĠRegion
ĠHom
ĠWW
Ġhidden
Ġmeal
Ġaffairs
Ġalive
ptions
elf
Ġoral
ections
ĠApplications
Ġwinners
ĠLE
Ġhal
ĠGuidelines
Gener
!!
imately
iche
ĠSometimes
04
ĠDennis
Ġdiseases
ĠRow
END
Ġachieving
ĠMeet
ĠLeadership
track
Ġsto
ĠStone
Ġindepend
ĠCommand
ĠFederation
ploy
Ġneck
Ġdemol
HL
Ġstayed
Ġservers
Ġprofits
Ġclassified
pin
Ġfeelings
agram
Ġthreatened
ĠPortland
Ġaddressing
criptions
Ġindicators
ropolitan
Ġrespondents
ustain
ĠMalays
ĠAttorney
Ġham
ĠClimate
ilding
ĠMaybe
Ġ1979
Ġwonderful
Ġnegot
Ġequally
idays
Ġspecify
Ġsimultane
ĠAlliance
Ġmedal
ĠHelp
while
ĠHum
orry
Ġarising
Ġattribut
Ġble
ael
ĠTool
Ġprocurement
Ġemphasis
Ġbowl
ĠFramework
One
Ġfabric
Ġinnings
Ġgains
ĠEnsure
Ġlibr
ĠElectric
Ġsoci
Ġlapt
Ġcontemporary
ĠRoom
Ġcoronavirus
aro
Ġanniversary
ĠQue
Ġflexibility
ĠSaudi
ĠCambridge
Ġsoph
Ġexhibition
ĠDougl
Ġ600
Ad
Ġsuggestions
ernandez
Ġmanip
Ġpray
ĠMadrid
Ġembed
Ġtur
ternal
mp
Ġow
ĠUnlike
Â®
Ġpin
olly
Ġbrown
aught
ĠED
Ġkeyboard
08
ĠBetween
Ġbreaks
cription
oura
power
ĠRound
afe
asion
ĠMust
prise
ĠTennessee
Ġtotally
orous
Ġinquiry
Ġrook
Ġsummar
Ġcollective
Ġreligion
ĠCe
ffect
bell
Ġshouldn
Ġdated
ĠSean
Ġinfection
ĠLegal
Ġappreciate
bered
Ġindicating
TP
Ġmunicipality
Ġfrag
roke
ĠLib
Ġreporters
izations
Ġassists
pha
orough
Ġtiming
Ġdeparture
imbur
Ġdrag
ĠSafe
ĠTR
Ġoffence
Ġ1976
estyle
Ġconver
annon
liest
Ġid
Ġ1982
Ġages
Ġfem
Ġexclus
Ġsch
Ġwarming
pson
NG
Ġsuppl
Ġbriefly
idge
ĠDoctor
iors
ĠDark
disc
ounc
Ġsam
Ġfav
uts
Ġbird
Ġcomplicated
Ġpresents
atre
iley
ĠPeter
Ġaccommodate
Ġtwe
ACT
ĠSumm
Ġbeauty
Ġstuck
Ġsle
Ġballot
Ġrecovered
ĠWinter
Ġratings
Ġunve
Ġmemor
PE
Ġshr
ĠBM
yes
Ġbonus
Ġcrossing
Ġverify
ĠTyp
Ġengaging
Ġfoods
ĠImpact
Ġexecuted
":
ĠLock
ĠVegas
ĠResponse
ĠGerald
Ġunclear
Ġopponents
clusion
ĠAttend
Ġmeaningful
ĠJunior
Ġnomin
Ġweigh
Ġlic
uce
ĠHenry
ouri
ĠPrem
ĠDomin
Ġfought
market
ĠTurkey
Us
Ġoutdoor
Ġhapp
Ġathletes
ĠGDP
Ġcommissioned
ĠDur
NS
tage
ĠSpr
Ġfocuses
Ġconventional
rough
ĠFri
hew
ĠHope
Ġrelax
onna
Ġsmoke
ĠNob
Ġmissions
Ġarmed
agen
aware
intend
omatic
Ġsolo
pond
fight
ĠLeader
ĠOcc
ĠMath
Ġpup
ĠActivity
Ġprojected
iece
Ġmetres
Ġoccupied
Ġtoler
ĠStage
ĠSpirit
ĠOverall
Ġactors
Ġproductivity
Ġscholarship
acon
angle
Ġhighlighted
ificate
ĠKu
Ġdeter
Ġordinary
Ġkeys
ingu
yan
Ġallegedly
ĠMedicine
Ġexperiments
Ġsteam
ĠSubject
Ġmistake
Ġclassification
riers
ĠWilson
Ġcurve
via
Ġlegs
ĠIM
Ġimper
Ġprevention
Ġlocally
ĠSwed
ĠIraq
With
ĠSym
Ġlux
Ġattacked
Ġquantity
ĠComb
Ġwhereas
ĠOk
appy
ested
ĠPerhaps
ĠText
UM
ĠCM
maker
Ġmac
Ġvendor
asty
opt
Ġrecognised
amination
87
Ġprim
Ġchildhood
nity
Ġscient
Ġconsiderable
Ġamendments
ĠPitts
eless
ertain
Ġpa
chan
Ġbehavi
uary
Ġdepart
endor
Ġdivid
pport
Ġsuperv
orge
Ġaccompl
Ġincred
____
ĠSEC
ype
Ġprodu
hens
Ġspok
overed
Ġrecomm
date
Ġmil
rug
Ġabsolute
unicip
estic
Ġanticip
bol
ĠBus
venue
Ġoutl
contract
ĠFranc
aby
estern
Ġwire
Ġalleg
Ġhyd
Ġheav
iple
igure
Ġworksh
olars
ĠAug
cribe
ample
ufact
ĠStand
Ġanc
Ġopin
ivision
Ġscholars
fter
Ġvulner
Ġdom
Ġwithd
ĠPenn
________________
XX
uration
Ġchalleng
acity
ĠFeb
grade
Ġconfig
Ġanal
Ġdescrib
Ġvers
Ġemerg
Ġexec
Ġresc
ording
Ġunlike
rought
agement
ĠIll
Ġexperim
Ġast
Ġaccommod
ĠFam
uling
ĠGuid
Ġhab
Ġpriv
ĠSept
iples
Ġconstit
attle
uters
Ġfig
ĠNet
Ġcorpor
Ġtick
Ġrough
Ġparam
weet
Ġterrit
rapy
Ġprep
astern
aren
abin
ĠCorpor
ĠOh
ĠFore
pportun
irth
change
Ġtyp
alle
oci
Ġcere
Ġcitiz
Ġrout
eared
Ġide
Ġest
ollow
Ġnorm
Ġadvant
itionally
ooth
Ġexperien
word
Ġlat
ellig
ida
erest
utch
ĠHen
Ġincor
ĠCong
ilar
Ġappl
oned
vernment
Ġaccur
ĠLin
Ġenforce
Ġstra
anies
Ġoper
ynam
aign
Ġarg
andid
Ġsoc
ittee
fol
Ġsaf
ĠFound
Ġexcl
irl
comes
Ġoblig
reedom
ply
elines
Ġven
vious
Ġdynam
riage
Ġcompens
ĠCanad
ĠJes
ructure
Ġinnov
Ġwr
ystem
ript
orage
ivery
cies
quir
enda
azine
Ġhaz
Ġnecess
Ġsom
agues
ĠScot
SW
Ġapprox
icult
reme
atform
uty
yond
Ġdat
ĠJac
uge
Ġmater
Ġeng
Ġinj
Ġcryptocur
sy
Ġinfl
Ġenem
levision
roduction
itness
Ġstud
ĠJe
exp
ĠTot
Ġspokes
ario
Ġpartic
Ġperman
ĠJoh
xy
Ġmach
ifically
Ġrespons
agraph
Ġslight
Ġbelie
duc
arters
ansas
uled
redit
though
erald
plate
Ġexpend
ĠAssess
Ġentit
Ġretire
atters
ĠMicro
rees
onym
Ġadequ
ĠDocu
Ġadop
ampion
ĠNAS
Ġexcell
ething
omen
urban
Ġfam
Ġlaun
Ġdif
Ġarrange
ademy
iverse
ĠDav
lam
ansion
Ġath
hemat
________
urric
ĠColumb
self
tenance
rete
ĠSum
Ġphil
elligence
urning
riculum
cribed
Ġstret
ĠLou
ources
ocial
epend
ses
ĠDig
door
ureau
Ġvict
Ġnar
Ġcam
Ġkil
Ġmom
fortunately
ĠPerform
ryst
ĠAustral
Ġcontem
âĢ¦âĢ¦
Ġprote
Ġnewsp
Ġprofess
Ġalgorith
Ġcommun
Ġproport
itely
enty
Ġfru
Ġsho
isms
igan
Ġtourn
Ġpret
ste
aith
Ġsever
ĠPac
essions
Ġliqu
rastructure
irms
Ġnucle
eters
pool
Ġquest
Ġtot
Ġrece
itment
icies
erous
Ġcommerc
Ġjurisd
hered
Ġguid
ctors
rench
Ġaband
ilies
what
Ġvot
Ġdefe
Ġmax
ipt
ĠCoordin
ucle
olit
ĠMex
there
porary
Ġwat
ĠAtl
atur
Ġentertain
azing
Ġestim
Ġorig
pective
pret
entially
Ġsatell
Ġpric
Ġcour
rehens
Ġdism
ceed
iew
Ġcateg
Ġey
Ġtal
artment
iful
ysis
Ġeas
ĠVir
Ġstreng
curement
Ġbon
roid
ĠCour
Ġincre
gment
osen
ĠTex
aughter
ĠFoot
Ġdatab
odies
Ġlandsc
ernand
ĠProper
ĠServ
ĠEmer
ĠCath
axy
Ġupd
rance
Ġing
Ġfoc
Ġhous
Ġeffic
Ġcomplet
ĠKenn
Ġatmosp
ĠAnal
ober
Ġexplan
Ġamend
Ġcrypt
ĠSund
Ġcolle
eech
isition
ĠColor
apter
ĠIndepend
ĠEval
iday
quiry
atever
idden
atural
ilst
angu
iform
ittle
arry
Ġprepar
ĠBrit
Ġbrows
ready
ĠCamb
rency
rm
Ġbeh
joy
ergy
Ġilleg
orld
mber
Ġneut
gency
ustom
icip
ween
Ġpub
ashion
irmed
Ġeff
Ġsav
ĠGeorg
ĠAri
ĠâĢ
Ġprinc
ĠVict
obal
Ġconvent
Ġuncle
ownt
Ġpurs
then
ocu
ĠMich
ĠImp
ogle
Ġtit
undred
annel
Ġdang
itutions
iven
quarters
Ġsurg
osite
igen
Ġerr
ĠCapt
asons
Ġansw
mas
ĠAgree
ĠEmp
iscal
ĠAnton
Ġdispl
irection
osoph
olute
ĠPrim
Ġoverse
Ġpict
ĠEns
rast
bum
Ġinit
ĠCarol
ĠGerm
isl
icro
aintiff
ĠFace
ĠRuss
anguage
hors
iliar
etimes
fortun
ĠSoft
Ġconcer
ench
ĠVirgin
anta
ĠSaf
riend
iques
Ġrequ
Ġpromin
isco
soft
Ġstrateg
Ġvert
verning
endar
elfare
Ġdownt
itchen
Ġfri
onse
ĠWed
Ġneighbor
Ġcoron
endix
ĠQueens
Ġincur
Ġcoun
Ġfranch
Ġproced
ĠFlor
reek
cers
kn
Ġpie
celer
ought
tw
Ġparticip
ĠWash
lege
Ġfeat
Ġflex
rehensive
Ġteac
Ġbasket
itals
ĠRequire
phas
hent
Ġachie
Ġhist
Ġdesp
apan
alse
Ġtemper
etwork
ellectual
ffee
opher
folio
ĠLt
ecially
othy
Ġunus
Ġaccord
ether
especially
ideo
cohol
respond
pril
itar
olec
ĠMean
roud
rote
uable
Ġequival
Ġestab
Americ
Ġlawsu
ĠOx
iron
ĠDie
Ġrap
Ġcandid
Ġfab
ĠAmeric
Ġcircum
irus
Ġcircumst
ĠMond
pload
owl
ricts
ĠPitt
cure
reprene
aily
ossible
rowd
Ġcris
ĠQuest
ajor
Ġvolunte
ournal
onz
coh
ĠVeg
Ġvide
ĠSpan
ommod
ĠAth
reens
ĠCalif
ĠHolly
utation
ourney
cknow
esterday
ondon
Ġbehav
Ġdoll
ĠHous
ancial
avirus
Ġmur
azon
utory
acent
gor
adel
ĠTes
hus
enef
cember
ĠAnth
nergy
mosp
Ġcharg
hern
minist
iversary
Ġdeg
ovember
ulner
bourne
emed
ocur
ĠItal
thern
xit
Ġ201
Ġavail
essel
ĠiPh
ĠOnt
Ġsympt
Ġtru
Ġsurpr
Ġoffic
overty
essee
haps
ĠKore
ederal
idered
itcoin
Ġphen
orig
egr
ĠSatur
ruary
ospitals
Ġannoun
rovers
ecut
ĠSup
ĠTenn
vironment
ĠResp
allel
uture
ket
osystem
ecutive
Ġempt
Ġbeg
udget
Ġocc
Ĥ¬
ademic
espite
racy
reland
inese
dule
habilit
ĠPak
ulum
Ġconn
Ġapplic
urisd
ividual
Ġunderst
irit
ivil
ĠChic
ĠHou
ĠFrame
uris
Ġrelig
ellect
mony
amental
retion
Ġinvol
ĠSever
ĠAfric
poses
cean
ompl
ĠIra
ivered
noon
selves
Ġchang
eras
//
ipal
ibrary
ulty
owa
ĠProfess
rael
onto
wealth
gorith
ĠThurs
ĠCaliforn
ĠTod
ethod
senal
ĠESP
lusion
ĠTues
athered
usband
itage
whel
reshold
etts
ilipp
illeg
ouncil
annels
Ġexper
Ġmov
urther
ĠGarc
xygen
retary
conom
ospital
anied
adium
zil
itect
Ġsect
icine
ilty
ĠWednes
Ġveh
haust
orthern
ĠLiver
esperson
ĠSaud
allas
cri
olitan
Ġwebs
Ġ199
Ġopportun
oston
sembly
roit
Ġbeaut
ylvania
meric
ultane
Ġlangu
outhern
lah
liam
useum
ĠNether
ĠHist
ylvan
Tube
ĠSyd
Ġepis
ricult
ociety
Ġconsecut
Ġcrim
anchester
sych
lymp
veland
estival
vironments
gypt
ĠAriz
regon
unior
iami
liament
resents
ampions
Ġful
Ġindust
apore
orney
Ġdise
ww
tained
ĠSams
Ġdut
flix
kens
inois
Ġrestaur
intendo
Ġrand
Ġsuc
limin
achus
adelphia
Ġimmedi
ĠPenns
Ġlarg
ĠAlab
dden
nesota
ancouver
viron
lahoma
isconsin
ouver
ĠZeal
nces
Ġbec
achusetts
phia
Ġprovid
Ġmunicip
Ġdou
Ġchall
Ġagricult
Ġsignific
Ġdiffere
Ġdocu
Ġsubsequ
Ġinclud
Ġgiv
Ġelig
Ġhig
prene
Ġmanag
gether
Ġstru
Ġtarg
onsin
Ġneigh
Ġcompon
Ġsatis
Ġhtt
ggest
Ġcharact
Ġinstru
Ġoppon
Ġacknow
Ġweap
Ġthous
Ġpasseng
Ġproble